BE16E1A4
BC619B5E
3D8906AB
3DF49507
3C82591F
BD8ECEF5
BD1F9374
BD8972AB
BDB63920
BCD46319
BDF79A58
3E1A25D0
3E1C5832
3E26FB6E
3DFCCCD4
BE42695C
BC53C7F9
BE6A9050
BD0F9635
BE148866
BD3802CB
BD0437CB
3D7BBD50
BE369677
BE061DCA
3DBAF798
3E20F81D
3E4685EB
BDAA6B52
3AA3FBC9
3E271CF6
BCA8944D
3DC142B7
3D4D71D0
BE4FD355
BE4A551A
BDDB6DC1
3DB13D49
BE44F805
3E43E4CF
BDC807EA
BE2744ED
3E070645
3E3B9D1D
BE264CEF
BD1CAEA8
BCD89B94
3E4B0E64
BDA43CB8
BDD3CADE
BE16D770
BE5439E0
BD8E792D
BB5E1A5F
3E466CE5
3DC71D7D
BE1D7173
3D7F7883
BE3DA610
3D9ED025
BDA1E0CC
BD0FC2A8
BE2D846C
BE4FB856
3D524E30
BD2A0634
BE173D5C
BBB4203D
BE3708EA
3DD1DF51
BDF383BE
BDC30AC0
3E3E9123
3D865AF8
BE4BC88A
3D66BAA3
BDBBFB82
BDD9DA52
3E393C5F
3AFC6B40
BC66A0C3
BE0F2451
BD6C4AF0
BDD6A307
3D053317
3E20BC7D
BE3EDD00
3D12EC1F
BC904547
3DFA090A
BE1D7B10
3E1C2F41
BE54DC3D
BE1E5EDF
BD9BEEFC
BD41B43C
BE08C1C8
3DB7F83C
BE0A749F
BDA2CFE0
BDE8C08F
3D994176
3D9ED006
3DB7D0DF
3E09F8ED
BDF3C6D0
BE06B3A4
BD8AF026
BE556EC1
BD839582
BE31913C
BE65CB18
BD8D1EC9
3D7E6A1E
3E20C81C
3D16D6B8
3C42616C
BDB20284
BD95CEF1
BDB1B2B2
3E47A3F8
BCF5B7AE
3E1A3EEB
3E0D5E27
3CBC4BD3
3DA04FA9
BE446ED1
3DA1609A
3E44A6F0
BBC24489
3DEE9BB1
BE33AC2E
3D2B54AC
3E197F22
BD74F750
3E40BE23
BDD6CDF6
3E431A84
3D23182F
3D191E1B
3E1628A2
BDA01099
3DD49CB6
BE187AF5
BE00315C
BDD9AFBB
BDE82614
BE308075
BE0D31B4
3DD8695D
3DC8679B
3DFA2032
BE00397F
3E2AD85B
BE1FD990
3DA38A40
BD247138
3CC62B53
3E1BB920
BE06B77D
3D86AF55
3D0FF009
BDC21060
3DCBF981
BD5295EC
3DA7193F
3CB008BA
3C623BE9
BDCE2556
BE557FD2
BDE26121
3E0FE9B5
BDD21A67
BE02C079
BC1DA052
3D91672C
BE0A458A
BE16F8D3
BE4B2255
3DA342D5
3E5DFC9C
3C9D0791
3A9D9DE9
3D5A2E68
BDA6659E
BDB323CB
BD15333B
BD936EFA
3E46FC6D
BDEA8D54
BE5B529E
3C6EEBA7
3E520918
3CA39119
3D918C61
3C840F94
BD5513ED
BDFD72C2
3DC91833
BE44C0E1
3CB9E1C5
BE628DCD
3E1B151E
3E1F8855
3D4FE7D6
BE4C9587
BE0E8519
3E127C44
3D032EC1
BC3756F3
3D8F66AC
BDFD5F2E
BDB338A5
3E0ACB7A
BD4EE28C
BE3F58B1
BE33437F
BE50BC37
BD86D3B6
BDAEC167
3DC7D296
BDEAB755
3D90D928
BDEC2D5E
BDCDAF86
3E53CB32
3E36029E
3D94999D
BDE93EC9
BE4B9B4F
3E376C74
BE11AB9D
3DD1B6AD
3D13B5C3
3E3C0C56
3E423B64
BD6841BB
BE413005
3D26B9CF
3BA574CB
BDD944B0
3E4631A7
3D8C5A70
BBB40548
3C72AA8D
BDE4A4B1
3DC3BBEB
BCCA3185
BE57235A
BB2AF362
3D9ABF2E
BE423F33
3E391C37
3E4C0D88
3E002DCC
BDEEBF8F
BD8FA152
3E121471
BE1E1C75
BC570147
BB66429D
BDB1BC0F
3CC78D10
BE1F9FF1
BDBCD7F9
3E4A2F7F
BE03FC8C
3E0F5C73
BE2CC80A
3E366EC2
BD81DE31
3C4A8C4D
3D256155
3D2B1565
BE2D978D
BDABDB78
3E57FB2F
BDF992EC
BE4105B8
BD8B88A2
3D880C3E
BDD60E2E
BE421E8C
BE5583CD
BDAF7B7C
BDD6E0FB
3DC2442D
3C16C529
BE42D748
3C973C3F
BDB24434
BDACA0B2
3DD6DF25
3DEE00E7
3E591980
3E27CE41
BC9EC83A
BE41BCBE
BD0CF05C
3DBDC05D
BD01AAFD
BD7554ED
BC13A08E
BD881476
3DF38B48
3DE8156A
BDDADEED
BE4DB957
3E336654
3CD4C621
3E0B0211
BC9CA7B8
BCE96E78
3E158329
BDB8D3D0
3DE0BE98
BD911E16
3E4DD6FD
3CEE99D0
3DD5A01D
3DFC245E
3D8E7A41
3E061149
3DACD84B
3D7867A9
BE5FF66A
BE0191D3
BCEA0C51
BE47EC76
3D1886F4
3DC9844B
BCADC2E7
3DE97745
BE3841A1
BE421C7E
BDE3C20A
BE29DBC6
3C966F6F
BE335460
3D74B33A
3E15B5B5
3E231F79
3E0041EA
BE1CF3F1
BE2D920E
3DE5F024
BE362B8F
BDD57B44
BE20C3E2
3E360DEF
BE0FA307
3D8520F6
3D5AB716
3C23C77D
3DB2C470
BE4C87C1
3D8C77A9
BE513913
3DE5B3B0
3E322D51
BE18DA0F
3E243EB6
BC542C9D
3DFED730
3D8473CD
3DC2F81E
BD2DA2BB
3E4A231D
3D124B81
3E3388B4
BDEB141E
BD167E8E
3DD3F353
BE4004D0
3C4DE51B
3DBF58D2
3D5C46D0
3DD725D2
BD1C479D
3E04D139
BDD65125
3E1BD25F
BE079C2D
BC4343E2
BE100351
BDFEDC05
BE50C446
3D9CD5D4
BD982D64
3E5C669E
BD02511B
3C233219
BD28020C
BD9254A6
3E3786E9
3D33F47E
3E338477
3D150294
BD9FF5A1
BD7CCFEF
BE01BF02
3D9DF373
BE1CF079
BE400215
3E35B5C2
3CB69F4A
BB86AB99
3E0D51F3
BE152219
BE04C168
BB72678E
BD0DAEBF
3B74F8A7
3DF4DBE8
3E1DCCDA
BE0C3A7E
BC75FA1D
BE0D17FE
3BF62816
BE18B15D
BDFBF02D
3E00D92A
3DBDB11F
BD159F42
BD5CEE26
3E2E5CB8
BD0FF03F
BE55633B
BD06689D
3E1DCCDB
3D58EC01
BE28668D
3E068B8B
3C4CFF04
BD4763B9
3DE04BEB
3E2B6994
3DC7D19D
BBC0821E
BE1EC757
3E2383F2
3E39F625
3E1733C0
BE21CC4A
BDF5C21A
BE4B9958
BD334B2B
3DA7B7B5
BE2205AF
BE3BF63E
3D04A171
3E074DE0
BE397BFA
BD8C61EB
BCCBFA9E
BDB676E6
BE071213
BE749712
3D8FCCC6
BE0E4BB3
3DF72349
BE31812D
3D3D5D22
3D296997
3BACB8D5
3E2758D0
3DE184F1
BDBEB726
BDE95CF1
BD0B8C90
3D4CB951
3E3BC918
BDBE1C90
BD08D6D0
3DA0D5F1
BE1143CE
BD9AF8B3
3E0D47A4
3E414E8A
BDF8E995
3D307CB9
BD9CF48A
BDFC47C8
3E2195BC
3D06FEF9
BE5BA2BE
BDCCDF3C
BDE01CEC
3D86C074
BE003905
BD89AE2B
3E4374E4
3E0B708C
BD313C94
3E22AAA3
BE24E556
BE06FBB4
BD58E9AC
3C92760E
3D455F43
BE52621D
3E14D413
3E4B103F
3DEB9288
BE1D5FCC
BE416F8E
BE510718
BC925753
BE0942D1
3DFD40EE
3DB1EBE6
3D0C3A10
3E054407
BE426E1A
BE4592F5
BD2521DF
BDC0ACE1
3D853990
BDC3E8F8
3E2657C6
BDB42DA3
BD87C4CB
3E2B3E27
BB9951CE
BDBEEC21
3CABA4B0
BE308BDD
3DCCE967
3CDE61D4
3E0EFADC
3E0FA1BA
BE2B293A
3E546BD9
3E3A9C9D
3E2481D3
BE1C35DA
BDA81572
BE510DD0
3DCFB7F6
3E377A18
BDE68B10
BE13B272
BCE93BAF
BB982969
BE2FEADF
3DB74D9D
3E0DBBDF
3C24CEE7
BE504ABC
3E064F4B
3C387EE6
BE60A58E
BD1C272C
3E3270BF
3DE4AC83
BE01AB13
BD27FDD8
BDE6EC5D
3E01BC2F
BE4B95D3
3DC30083
BE1C2E8C
BDF678BE
3DE064AD
BE45B3C4
BE35B099
3E1A536C
3DA1AB64
3D06F907
3DE7E7BE
3D7697CD
BE0875BC
BE2A14A2
BE3B7C7F
BD36C0D9
3E15277B
BDF6E7D4
3E1FCF48
BCBCA62E
3C8EE99E
3D68324A
BCEB1772
BE38AFD1
3DC22337
BE5B1B12
BE3D0F52
3DB00EA3
BE0C53A0
BE191C0D
3E15E148
BE126A3C
BDB1993C
3E128FB4
3E00DF5B
BDC233BB
3DF7DA28
3D69CAC6
3E48FD3A
BB831323
BE4FA5A3
3E2E1465
BD9C3161
BE587983
3D7FC70A
3CCDDC33
BBFF6069
3E0356F6
3E105007
BDD9A358
BE177A3A
BE3072CD
BCCEFF25
BDE04986
3BA4EC3A
BDEC8DF8
BE474797
BE030568
BDBD32E1
3E3BF5E0
BE54EADA
3E1824C4
BDD58F3F
3DC3FC04
3E479E35
3DB4BF6E
BC589F48
3E4139A8
3E151CD2
3E50298B
3DE0D64E
3D8DDEFC
BD2FEDFC
BE0B80CB
BDF69203
BE532B32
3E2F16EE
BC8AC18C
3DE4F4EB
3E50B44A
3E2D9DFD
3E573397
3DBAF457
3E163375
3C96208A
3E1768F0
3D39778E
3DF176AC
3E169B64
3DE9E895
BE087E7C
3E63CA05
3CF0F309
3C1F9FB4
3D9BA3AE
BE3702E3
BD548E11
3DF745A6
3E1FCBE5
BDAE9F0F
3E0A8F66
BE471B58
BDE59D56
BCB3B287
3E12961F
3D8F6975
3E04F7EE
3E1BD4B4
BE36EB19
BDBBF8C2
3CA42CC1
BE180A6A
3CDA234D
BE18216A
BC834F52
BE2B727C
3E0ADF9A
3DC898F5
3D9A8EA9
BD54A51D
BDD00D0E
BDAD427C
BD8A045E
BDBE7B08
3E195774
BDD9A686
BC374699
BD9F6A8B
3E146876
3DF26655
3E4248AF
BCC3B91C
3C203145
BDF243FE
3E3C894E
3E0EB3D8
BE3EE891
3DFD59B2
BD13F534
BDBF5494
BE3D7899
BB650088
BE1D16E7
BDF02EFC
3CF4C17C
BE563A37
BE603B20
3D0B4AE5
BE0FBE3C
BE4C2BAA
3D3A97C3
3D5428A2
3DD56C52
3E1871BD
BE622943
BE156336
BC2C9EE4
BD35196F
BE31A252
3DFD9F04
BE42320F
3DEB9CC2
3E27A7B1
BBF1AE85
BDFF3169
3DAB31F8
BE46B44C
3DA65CFB
3D005F41
3D9A2C9D
BDC95459
BBA36D13
3DC284F4
BD61891F
BE3F3E11
3D317E0B
BD61AE9E
BE12CDE6
3C1C8BB5
3D875308
BE378182
BE017982
BE41987E
BB9C5CF7
3DA48992
BE3DBA8D
3D144882
BA9E03CA
3E0816C6
3E2024AD
BE24FB1D
BE1BF35F
3DB9E4F2
BE2BC5C4
BE2803DD
BDFFC925
3DA0EDFD
3E2026A6
BDB1E429
3D306D30
BE054A20
3E41DDAF
3E3D0550
BDAD051E
3D65F6FC
BD4D02D1
BE3C795F
BE6691D8
3C8E5B1E
