3CCA6304
BD35443F
3D84A858
3CB1ACEA
3CDDDD6A
BCA740A6
BCB64CF4
BC98A535
3C4B0291
3D5D5BD2
BCD4CC25
3D3EAF53
BD0A5D0E
3D8A5CFB
BA54E9E2
BCE29E5A
BB958E6E
BC3AACC3
3AF73106
BCE8BF4D
BD2307D1
3C0E2F2D
BD640119
BCAD5AAE
BD1ED01A
BCEC75AD
3D06E0D0
3C88ABEB
BD850B99
BD11770B
BB0760AA
3C5CABD2
3D33E009
3D6C0FD8
3BCF276E
BD641F88
3D39279F
BC898DE4
3D39C6D6
3D4EB232
BD58F2B6
3CCF0559
3D104B5F
BCA6500D
3B6CB6C6
3C5151C1
3C5F2E26
3D549729
3CBE594A
3D4A9F99
3BEF92B7
BCB6A15A
3C6FB931
3D2CC849
3D81F32C
3D83D80C
3D4EFA86
3C6804AF
3AACE0D5
3C0DF1E9
BC7D237F
BBE70D90
BB90F5DC
3C93140C
BD61B1A1
3D04813F
BC6C5BAA
BD9526E0
3CDE4632
3D375DDB
BCFB6411
3D820970
BD146DDB
3D1AC674
BD7684AF
BC8925A3
BC15D4CF
BD5240BC
3CAE4120
3D4C903E
BC84590C
3D493B3A
BCECA587
BC12CB26
3C86290C
BCF155CF
BD183BE3
3C005384
3CD7C5A6
3D4FABF4
BC8A8734
BCCB07D9
BCA47258
BAA0CBAA
3D0650E4
BD627E8A
BC3EC169
3D153B7A
BB77D275
BCB65641
BAF440A9
BCA33989
BD19981E
3D6A28B3
BCAECFB3
3D36F471
BD713EC6
BD86E735
39C8D7FD
BBC19D33
BD6C8249
3CC43E4B
3D35CEEE
3CC4940C
BD3FED3E
BB3C03F8
3D08B4E0
BD26BA15
3CF23ECF
BC958EEF
BCAF2433
3C5BFC32
BC3560C6
BCFED02A
3C84E32F
BCFBE01F
3CBA9972
BA7DA818
BC975BD5
BD1DBD83
BCF67D01
BCD449F8
3CA5E11B
BC9D9194
BCB8527A
3A80CC2C
BCBC2403
3C99833E
3BB8E14E
BD58F7A8
BCA952C3
3CFC1330
BB5FAB83
BC2DD22A
BCB8B471
BD370C07
BD155074
BD2DB893
BC9EB949
BAA02CA6
3D0B8DA5
BC9487D7
BD308F10
BBC8EF85
3BD88B9E
3D6E762D
3D4F02D8
3D0369A1
3CBE84C5
BCC0FCD3
3B8B1114
BD4959E4
BC88673F
3D01D15D
3D0C546C
BCB37844
3B986EAC
BC6C1C15
BCDFFFEE
BB810FE7
BCBD46C0
3C923A94
BCA92CF0
3B121029
3D22E6B3
3C5577CF
BD2D3785
3C8855FF
3D1C9BC0
3BA0E2D9
BD2D87EF
3D59E489
3BBCFAC0
BD04E7B5
3CC3477E
3D464AF8
BD4B650B
3D2E7A7A
BD643696
BB25BDFA
BCFCCBC9
3D6FF091
BD4E08C0
3D16863D
3D4E20F6
BCBA1DFA
BCD594B2
BACF2B60
BC1EC910
BB35136D
3CC8B23E
3C0EE3F1
3D00074B
3B625A1E
BB870C2A
BD4D97FB
3D789C90
BD321147
BC92EF20
BC7EDCC4
3D9FCD16
BCE81A37
BD0C2F6C
BC7DA360
3C94206F
B989DA11
3C662A27
BC4A8C8D
BD51CE2B
BD6D5148
3D3D1877
BC65AFD8
39DC6F77
3D0EA514
BC323351
BD1E8FFC
3D1EBBB5
BD129C82
3D30CF32
3D24FAB4
3D6BFB0C
BC4B3122
BC9DFFD0
BBD0BF92
BBF51CA3
BD8F051B
3C7FFACD
BD5E7E7F
BBBE1CEA
3D027EF1
BD21778B
3CDC7811
BD433057
3CC53AD7
BD0D5D22
BBF17218
3D562230
BD934F63
BCC8C968
BD34867B
BCA2D38B
BD14429B
BCBCE6FC
BC7D4DAA
BC6B7A3B
3D2946CE
BD11ECC4
BD4549B6
BC2AB7C2
3D788E3E
BCBA7E00
BD60C4A7
3C93C2DA
3CB99C0B
BD5A12C6
3BDF67BC
3C895705
3B437ED8
3D0002B5
BD56A517
BCB3B414
BCD49BA7
BC82EDB6
3CFB877A
3CE52A23
3C74630F
3D436F61
3D49D5A4
3CF853D6
BD63FB12
3C5CAF44
BD4949F2
BCD015C3
3D56BE29
3C6D5BCD
39E08C8C
3D1BB645
BD68C39A
BC1CE045
3A96A02C
3C121DE7
3D634B46
BB462A04
BD375848
BCDBEA60
3BEAEF08
3CAD83CA
BCDD3D33
BC7642C1
BCC44FF3
3C8C0C9F
3C0CA320
BCD71470
3C55B510
BC4662F3
BD8286A3
BD7189D1
3D2FDD2D
3D0D0F27
3CFC3324
BD0A3DF9
BD5B0EE8
BD48D60A
BD3B01A7
3D49613D
3D6B4878
BD056EBE
3C84A1EC
BBA1A8FE
3D5C63E5
3D2EF6BA
3D15CCCB
3BD2317F
3CB47AB8
3D105854
3C57544C
3D129F64
3D955649
3CEFBF17
3CCA2C70
3D8E25DE
3D57A565
3C7B7591
BCBB2160
3D918BFE
3D6E9E2C
BBC21E12
BCD498C4
3D36E866
3D01DBF3
BC5E316A
3C6FCC11
3D432087
BC34D9AB
3CE55D45
BD3D7BC7
3D28BECE
BC04FF4A
BD48FBAE
BCC2F83E
3D4AE58C
BD43327B
BD320277
3D673612
BC934116
BC9BD9D1
3CA5D8AE
BD83E6EC
3D71395A
3C7D01C0
3CAFC75C
3D2E9F66
3B6D18A6
BD67A757
BD0A621D
BD4754EA
3C41CF3F
BCED39E4
BC923F5C
3D152817
BCC9FB97
3C59C7D8
3CD41A5B
BB940FB9
BCEB1A01
3D915566
3CF63088
BD65681B
BD05AFB1
BC341E1E
3C708A3F
BD3A9A75
3D3554CB
BD6B9A47
3D1D4B68
3CD87C42
3D4C37AB
3D12542A
BC36A9D2
BD81BC73
3D8B1905
3D0FE54B
3D47E400
3CAA9A9B
3CE51DC1
3B1A9A50
3D14E525
BD1E73CB
BB00AA8F
3C189696
3C547D99
3D503D08
BD0CABE8
3D390B8D
BD08ADD6
3BEB38A6
3C926D64
3D589AB3
BB3D7F39
3C047E12
3C2AAD5E
BCFCCD84
3C6B2CA6
BC36087B
3BB363DF
3CC5A9C6
BBF51C1C
3B721401
BD4FEF41
BCCBDC77
3B7EEABD
3D0B74AB
BCD44C59
3CF52C67
3CC915EE
3D452CBE
3C10AB01
3CE46AE0
3CE8B56C
BC846F15
BD148356
BC66B1CC
BD68ECFB
3D88DE7C
BCA5B737
3C3EE7CA
3D4F973C
BCEC0BC2
BD41E2DA
BD4A23AF
BD37857C
BC826D7D
BC88A6B4
3D1ECCC2
BC6C18F6
BD859129
3C911A38
3B81DDBF
BCA5C834
3CEC30C6
BD252A2B
3C58A167
3D29C75A
BBC74210
3C1A8E6D
3D11CA7D
3D2BE04E
BD14B0CB
BD65015C
3D0F1E46
BD60DD4B
BC86219D
BD4C2220
3D191D14
3C9FE553
BC20F395
3C19F857
3C9B2DCD
3BC96117
3BD1A563
BC902925
BD1BB1C7
BC7055AA
BCD4B008
3D361BCC
BD6FE43F
BA19CF70
3CB36B84
3CCC15B4
3D13423C
BCF06884
BCD8D77C
BD2543A3
BD0CA236
BD8D9F86
3D8B8864
BCCB83D7
3D2CF3B2
BBAA2028
3CDCDD94
3D0924D9
3D25E1E2
3CABFCAA
BCB10C45
BC8D82EC
BCFBA4CB
3BADBD17
BD086C30
BBF1C213
BC689EA9
BB15891B
39EC4A0D
3C38C50D
BCEFC278
3C1FA8CF
3C00BE1E
3D2AF5A0
BB896715
3CB03A3E
BD3BAD78
3CC262FB
3D46DE95
3D596F2D
3D393639
BC6AE5DA
BC75E623
BD6149AE
BBA72CA1
BC1E8BCB
3B9D6DD4
3D5AC62A
3CE0DB23
3C8021EA
3C2C1310
BD361038
BA9AD4F9
BCFECE61
BC49A9F4
39A3131E
BBB89C24
3D1AB41D
BD2C8683
3D22B164
3D36778D
BD407467
BCC35E31
BD383686
BCF06D76
39F908B8
3D877DE2
BD3DFAA7
BC94E350
3BEA1B9F
BC45F0F5
3D334714
3D4308D7
3D0AB18B
3C5F149C
BD454B74
3D446503
BCF252E3
3CF63E48
BC38FAE3
3C873451
BD0FBA2B
3D559E23
BC27266F
BC32572B
BC66B73A
BB96DA42
BC91C1FF
BD170D55
BC7D9AC1
3D325702
BD6543A5
3D16976B
3CB733CC
3BEA7FB7
BCE47874
BD3EE300
3CBAE68E
BD779E03
BD83C85A
BD740810
BD0A2DC8
3D264958
3D3CBD59
3CF096AB
BD88AA1A
3D334799
BCEE343C
BD215DA4
3C36BAF6
BD20E67A
BCF790C7
BD2376C3
BD1993AE
3D2D6DE7
3D03C3E8
3CF8956C
BD1087F5
3C748985
3D2644A7
BC23719E
3D6DF0C9
BD2EB280
BCC23CA6
BD2D8A44
3D5E2171
3C9EF9E5
BC877350
BD36A003
BD232EEE
BD2490BF
BCE4DAC9
3CDC06DD
3CBB8D7F
BCEB569E
3CC54E20
BD4DD388
BC3731C4
3C370900
BD65AE61
3D8438E8
3C20EFFD
3CF079C1
BB418D4E
3CD6D1A9
BD3996EB
3C83F6FE
3BFAFC85
BD36E139
3CBB0FBE
BB2116E3
BD692E45
BD316897
3CE65ADA
3CF40FBB
BD56951F
380A47FC
BD25880F
3C668A01
3D33B084
3D85B9D6
3B7E7DA5
3D37057F
3D6065B7
BD248BAA
BCD52524
3C45E450
B8B8B48E
3CDF6009
BB07089E
BC8CCA07
BCCA87A9
3D512B40
BD43DEEB
BC1079AC
BD022E5C
BD3871BD
BD8C3F8E
3D1DBC2F
3CC0E87E
3CBEFF98
BC5ADE54
BBD2890B
BC2C6629
3B9FEB98
3D848CCE
3D72916E
BD287F93
BD2C087D
BB1618A6
BA3ACD76
3D6D7487
3D15368D
BD4E7F16
3CD5106B
3D384331
3CBC8438
3D057A9D
3D870EED
3D114673
BCF0488D
3C0A40AF
3C45DE8A
BD853B98
BD268386
3D45ED94
3C0F7991
BC4CDFA3
BD6AD804
3D49A069
BD3C4538
BB604439
3D17D220
BD1D6250
BD4908AA
BD45A008
3D933BE5
3C9A5F90
3CC2F4D1
3D9F07E5
3A169E68
BD501EC0
3D0075ED
BD35D9BE
3C58B95E
BD5C82FD
BCA71F0C
BD3F1577
BD740C0F
B8CF48BA
BD21526E
3D663C0A
BD74FF0C
BCBC49A0
3BA1BADA
3D4D6B29
3D1E4DF7
3C0029CA
BD84E994
3D322293
BB888248
BC85B11B
3D045F88
BD40293B
3BBBC6CF
3D411342
BD721AE0
3D1B3DDE
BD5B8938
3D448D2B
BD063D4A
BA0CD92C
3C1364E1
3CC3308C
3CAECC72
BCE4A41A
BCBABF39
3D3D87F3
BD847170
3C9EFCF0
BD5366C8
3D4525D6
3D1F3F30
BBDC5636
BD37CEA7
BBDBB9EC
3C17B9B6
3D19FC19
BCF04218
BBAA6FE8
BD0DC573
3D197EC0
BB55EC9A
BD3E1A07
3B887F97
3D0FEE75
BD56BB19
3CE05D47
3BF06FF3
3CBD64F7
3D01802D
3D1150BC
BAC6B936
3D308D76
BCE0F35E
BB33BFC7
3C845E92
BD56D442
3D40C5EE
3C4FA520
BCD041C7
BDA31735
BC8E896E
3D0777F5
3C3C2D0C
3C71F73B
BC8F748E
3D877242
3C4D6E46
BD17E7AB
BC6A1B16
3D0B574D
BC7714CC
BD6FAE75
BD3F6926
3D0934A1
BCB88026
BD2EC85F
BD5992AC
BD124B1A
BD025F9D
3C27A130
3B951E19
3C947E5A
BC3CFB48
3D3AC62A
39AE7E50
3D42C6E3
3C51A9B3
BCD60B4D
3D67E858
3C257EE3
3D83F93B
BB303EE4
BCA24771
BCF05357
3C0A3FE6
3D3F6EB1
BD11985B
BC93DA7E
3C315793
3D0544C5
BD914270
BCBA7CE0
BB8B60AF
3D4EEFA4
BD16EC91
3CBA1F34
BD141BF9
3D48CECD
3D41AF86
3C175359
3C392AEE
3C21DC97
BD02A21E
BD29FA3D
BC14DED2
3D487E06
BC30A62C
BC758884
BCCC5350
3BFE3A12
BCF8596C
3D2DED0C
3D46F54F
3C1CCB4B
BCEE7317
3D2F558A
3D3C8CFF
BD047D98
BC161159
3C90BE33
BD622DE9
3CBE2147
BC016932
BCEBEBFE
BCBB1C40
BCFFACDF
BD760456
BCBDE92A
BCE81786
BCFD13C1
3C455FF2
BD9276CE
BBD4C13A
BD2DCC10
BD433236
BD39FB42
3CD03DA8
3CFD0B47
3C9380AC
3BD3B22B
BD83A570
3D36653F
3D460D66
3D39FFCB
3C8C38FC
3D5BEB95
3D1EDE82
BD7A6B34
BCB3D8B7
BB5410EA
3C4DF417
BC8623B6
BC621418
BCC02378
BD0DC982
3D837D0E
BCE62F54
BC282BF8
BD5EE6D3
BCEF82A3
3BBAFFDA
BD85E916
3D361BFB
3CD3A720
BB5A99E6
3D01BD7B
3BD706E5
BCD49195
3C376A03
BC872448
BD34A92B
BCA21157
BC9AF393
3898F1D1
3C81FAE6
BD31CA5F
3CB9C88D
BC53DFEE
3C44BF62
BCDB4078
3D4343CC
3A97077D
3D446665
BB9210FB
BD87B7BC
BC889340
BD725B48
3CEB4C4A
3D54D024
3B52B69F
3D552CEA
3D1B9CAD
BD294360
BD705DDC
BCE5D0F8
BC165D64
3C68CADD
3C6FD3A2
3D780F9F
3CE6DCED
3CBA3137
BC98C151
BD0C66B7
3C137D05
3D67C353
3BCB02B0
BD21B735
3D3062A6
3D0BC7CF
BD3EDEE4
3D2F875D
BBC5B724
3B9789BF
BBEA3A0C
3D12E341
BD1559D2
BD4B59F5
3D07100C
BBF0D820
BD3D35F8
3C061F18
BD3C8C78
BC51E3C5
3CAF6FC5
3D2F80EA
BD181E39
3D29E1CF
3C464E12
3BA223D4
BD809C84
BC937337
BC8F5796
3C2DE6D9
3C8781A2
BCE7B972
3C54A1EE
BCA583CF
BC583D1D
BCA7B0EA
BD71DC44
BD4A51BA
BA1F7E93
BD80447C
BBAE7A90
3D70BED0
3CB25129
BCA3D980
3D429AD4
BC9843D6
BCA02AE1
BD5EE12D
3B80705B
3BA100E9
BCD4283F
BD41C542
BD499205
BBDD6788
BD6EB591
3D1307CF
3CCD8215
3C1000AD
3D17183B
3D40ABB0
BD2E33BB
3D0C1CC1
BC2EE1E3
BB0C11CA
3CE99632
BD4C1ACA
3CA5A918
3B9664B6
3B01FD0F
BD597572
BC9FA2EB
BD6D58B5
3B41AD91
BCEF5671
BCAA5583
3CEDC721
3C9724AF
BC55DA11
3D38F795
3D518932
3D638273
3D217BEA
BD3B305B
3D27045D
BBFB6D04
BD87FA19
BC138CEB
BB2EF983
3C886D89
3D2B631B
BC1998C9
3D04D8F0
3B0A5CFF
BC333C70
BD26A0B6
3C20C2EF
3D1319B8
3CD7DAA3
BD2D7747
3D6D3C67
BD31653D
3CAD5766
BBC9AB58
3CDDB28B
BD1D4841
3D54A959
3B26BFE7
BD48DC08
3CFDD32A
3D9B19EA
BD429162
BBE7A5BD
BD783E2E
BD1B3E3E
BD20497C
BC95D768
3ADB2F13
BD8519D9
BD889B89
3D491570
3CDA4BBB
3B35427D
BBBBBEB7
3C5454CD
3D856402
BD5FD44D
BD842633
BD204FEB
3D1E1D03
3C44B268
BBBD58E0
BD41679B
3CE4B298
3D676E60
BD4827BE
3AD1CB7F
BCD2657D
BC70A4EA
3D3BBF32
3D898DB5
BD59A52F
3CDF888F
3D05ADCB
BCB0660F
3D3A3C96
BC9B1CA8
3D39C4B7
BC0F2E47
3C8F7BC5
3C786D4F
3D9DE6A1
3C128F06
BD7D40D8
BD636970
3D5E47F9
BC230247
BD5DE0DC
BD5D9579
3C9CB326
3D2AF6B5
3CB2E888
BC9ACD55
BB15DA51
3D618D75
BD395DC6
3CCC932B
BCCD2974
BC9A035A
BCDB74FF
BD5D677E
3C6B8BE2
BD1EE015
3CA15C3F
3BA9B490
BD4F5D2B
3D867981
BD2BA781
BCF2F3EB
3AC8269A
3D59C77B
BD51D100
3D3CBC22
BCA9AFA7
BD1B6108
BCC85B5A
BD1D5162
3C1E0465
BD0E02A9
BD1BE04A
BD431143
BD7F41CB
3D2FB9B7
3CEE0E97
BD089DB1
3D9E60E2
3C672178
BCDF7978
BCAF254A
BD336D7F
BB762E57
BCCA07F7
BC63DAE1
3D832AE8
BD27A404
BC6C0D76
BD15EF2F
BD9793BD
BCAC6D62
BD482071
BD048D6B
3C456BDF
BAF6CAB0
BD22E060
BC91A84F
BCA516EF
BC88BAA5
3D1CEDC6
BB955681
BD214DFF
BD0A3109
3D0855BD
BCB30731
BD827A45
BAFC3418
BCFDB747
BBEAB158
BD041AF7
3CFFEDE1
3D322A5D
3B702D02
3C01A974
3D888DB3
BD57B53D
BD6869BF
BD0EB97A
3B382EF8
3D1C1ED2
3C03665F
3CD92DA2
3C9352D2
BAF12070
BC7BD603
BD055DF5
BBC4DC6D
3CD2AB6A
BD51CF60
3AE58038
BD09BC61
BCDFBC27
BD150C87
BC90B279
BCB2219F
3D266D75
3D2F2CAB
BCE725B3
BC34B3EE
BD578138
3CF0170E
BD46FF80
3CAE8E61
BD447288
3D869387
3D0AC171
3D5057CE
3D060B86
BD6BAC1F
BBA5A2E7
BD034563
3A80253D
BD1C7E32
BD512344
BD8C6B66
BD8FDD3E
BB293BB7
3D2E5A7B
BCA37947
BD317FCA
3CFE849E
3CBE7489
3D50F60A
39909CCF
3CD7861C
BCC4A4C7
BD679D9D
BD04E223
BCA1F99C
3B778936
3CBF320A
BD52ED0E
BC51BFFB
BC8DE645
3D3C3681
3B6D3A68
3CB67691
3C53FC4B
BCFA06FB
3B6CC965
3CF2E206
BD70719D
3C1F3248
3B8D5075
BD84095C
BD10C191
3CD073D8
3C6AF2D6
3CA8DD19
3CB15CE9
BD8DD6F6
3D25D2A5
BD191F7D
BD813399
3D4E7F85
BD20C635
BCCD8D7B
BC5C2FE4
BD0CED2C
3BDB26BF
3D803275
BD55B58A
3CCF4D61
3CC0E38A
BD301E29
3D37683A
BD5B462C
3C0A67DD
3C4695C6
BC692E9F
3CF07E6C
3D1ADA2A
BCE523AC
3D4AD659
3D59E0D0
BD348183
BD32E2EC
BD24AD03
3D80CEF1
3D6BD7BA
3B6F2C17
3A91F09C
BC7BFE64
3B22BFEE
3CE77D0E
BD663544
BCD820B1
3D0F64BA
3BA1E109
3D13C030
BD0DCC12
3C5A212D
BCCF6C04
BD3C268F
3CFB5437
BD4533C3
3CA9685A
3C48431F
BC5E1AB0
BDA89134
BD0898FC
3CAD45BD
3D07BAB7
BD802AB9
BCE9B66E
3CD5A4A8
3C970176
BD2FD5D9
3B9AA70C
3D055BD3
BD48EECD
3D158F7B
3C1CC360
BCBF891D
BD683480
3D5CABB8
3D2D15B7
3C91AC84
3D0BDB43
BC453E80
BB6AC423
3C15BC52
BD8632AE
BC01B505
BD67C5CC
BD25F4CC
3C4C3562
BCF027D0
3BE1201C
3D809FFA
3D237B7F
BCC96EF1
3D130B98
3CDF9D02
BD09E31F
3CF2CEEF
3C3237D4
BD5A5669
BC6600E9
3CF05911
3CE6FBBF
BD4EE76A
BCDA6A98
BD357E1A
BD4F72A9
3D0974F1
BD3B3750
3D2D8D20
BCCBD039
3D791067
3D0F3CCD
3CECC1ED
3D453171
3CD3A3AE
BD39CA9B
3C4A855D
BD631212
BD1A8800
BD3F1A75
BD98D2BA
3D933518
BD83A78B
BBBC48BB
3D1FB9A6
3C002D5D
BB1F3DA8
BD8BE927
3C442663
BB0C5A31
BC44EC53
BD2A5AA5
BD1D1FC8
3D10595B
BD7DDB62
3CEE2A50
BD871A42
BD754E4B
3CD9A9B9
BD692FEC
3C5FE20C
3CD17028
3D14C8D3
3D70D6D6
BCDF4784
BD17BB02
3CD65B7E
BBC809E0
3CDB314E
3D418C6D
BCBB3500
3C159438
3B986A52
3C49CB46
3C925879
BD7F2D59
BB90CEF4
BCA0B774
3C5E5669
BC87B456
3B42FCFA
3D5C8934
3D492A3A
3C3E9310
3D2F2799
BD3015E5
3C8BFA33
BC443C27
3D2529B5
3C5E408F
BBCF6738
3D410F9E
BC70B61B
3A1FE998
BD23CB5B
BD0A01CD
BD3E7272
3D19FD19
BD81E4FC
BCC35200
3B98F892
3D449361
BCA21971
3D06F41B
3D111CE9
3CC55E44
3CD5A4CB
BC998F3A
3D0E0908
BC36C6BC
BBD9209B
3D671BE7
BCC2E1CB
3CF3AC7E
3D39860A
BD537AF8
3D777EFB
BD61FFB7
BC22DF9B
3C3833CD
3CD69C14
BC7FC17A
BCCD631D
3D676EFA
BC9459B1
3CB94C12
3CC227AB
3C9F27FE
BB91E21D
BAF68591
3D0BB223
BC6F0526
BC5FDCD6
3D2E9701
3D010D26
BB81C1DA
3C73CDB8
3CB92FF3
3D8674E5
3D77D06F
B956E9E4
3B60EEB0
3CDC10D8
BCC073C4
BD33B021
BC803816
3CE1DD6C
3D39DAE2
3D06593F
3CDC4CBC
3C63DBF6
3CD9B17C
3B88D3E9
BC707909
3D5A1719
BD86482C
3CCB961F
BD6C0832
3D58D620
BD54FFED
3D1A002B
3D111E92
BCD3424D
3D9D569D
3D011333
3C08624C
BC508F3F
BC2C5EB6
BD1AC8C4
BD5CE3CA
BD43010F
BD0ECF8B
BD867E6E
BC7F0D1D
BD011347
BBD544BF
3C6BE805
BCA8A6AD
BD20C3FB
BD7C1C32
3D0666DD
3D1D4834
BD00921A
BD0BEC1A
BD354EBE
BD305ACE
3D4A4122
BD0BA71A
BCD7345F
BCBCCFE2
3D0EDEE2
3C9EA698
BD72CFDE
3C087767
3D03EB05
BD4DFCDF
BC0EFE0A
3C9CB8EF
3D6224EA
BD460EE5
3D10245C
BC2233B8
3C178830
3D44833C
3D355170
3D01D4EB
3AF9C3A3
BB4C2126
BAFA843D
3D77EE6E
BD4BAC37
3C9F51DA
3D3053A3
BD804123
3D801AB2
3C92115D
BD0502A9
BBFFCD9E
BCD047DB
3C13DB92
3AD132F2
BCCC8871
BC8F69C6
BD39E531
3AD95BE0
3D62506A
3CAC40F8
BC864F89
3D1D6340
3C649595
BB12CE61
BC5047C0
BD199DB4
3CF1BEDD
BCD53167
3D781CD2
BCEE2719
BC066B7B
3C7E40B8
BC093FF5
BCC7C716
BC49FF7A
BD22FB51
BC9BC02F
BD000A85
3A6671C9
BB9845AF
BB91A0D1
3D5B032F
BD73106C
BD273F76
BCD493E7
3D533CF7
3C0CF834
BD749BCF
BD7FFD23
BCBFAE18
3B821548
3CCBA938
BCA04B19
BC61E615
3C8798B6
3CE909EB
BD48AFBE
BCB55F34
3D1A37F7
3B7F601B
BB8F9182
3CC9B93F
3D02A35C
BC4C7D26
3C90EBBE
BD5CC572
3C0009CE
3C409C22
3D1BD2F2
BCF570B6
3CE26F9B
BC99AACA
3D5B6F1F
BC9B95C4
BCABBF70
3C8D1F25
BB33DCBD
3D3C0A5C
BD0D6B90
3BB6B204
BD03AB25
3CB0A9BE
3D8EBA23
3D2D4D27
3BBCFD45
3B12AC2A
BB735F1B
3D03604D
BC81E5D5
3D33EF52
3CCE4D52
3CB47B91
BC812C29
3D2A6D72
BD36EB27
BCAF240A
BB15946B
3C7BB669
BD519DB5
BD0E8242
BC974747
3CC51A49
3CC7BB31
BD0D78B6
BCA3CC95
3D102FE0
3CAF82C1
BD444058
3CED3498
BCE54888
BCEBC69E
3D66E0A8
3C462770
3D121D78
BC0D8686
BC702344
BC8A31D6
3CCE6914
BD342407
BD08307E
BBACB7B6
3D052240
3C8DE49E
BA18687A
BD588409
3C5D1C2A
BCB8897B
BCCE4934
3D1A4847
3D1B5330
BCE26847
BC92560E
3D094809
BD1F22AB
BCC31A5C
3C9E6AB4
BD2718E0
BCBE0709
BD0A5220
3C4FA1DE
BAB5E5EA
3D2CBA92
3D1B7DE9
BCB33873
3B851D48
BCDE0EFE
BD15B5F9
BCBA0080
3D3655BD
3BF27D79
3D35CE01
BD0810BE
BD74AEEA
3B6880FF
3D808A85
BD62AEB8
3CC37A1E
BD49B9ED
BD33D6B7
BD6D832B
3C88CD91
3D4C93DC
3D235118
BD228BC6
3D0DCB9D
3D2B6DDA
3CEF52C2
3CEC7BFB
3C6E572E
3D048674
3C69F8F0
BCA95D5C
3CA5C9D4
3CF2CF0D
BCF60A5C
3C924C47
3D4E1E33
3CF89B48
3D081296
3CFF13F6
3D625360
BD2DBEAF
BB628020
BD338958
3CD43AA8
BD1B22DD
BC93313C
3CC8635A
BCD76BF1
BCCF881E
3D741129
BC9FCA6F
BCE93A1F
BCD56A60
3AB96EF4
BC27071E
BC4FF0B0
3C88D993
3C733290
3C89DA69
BCA64BE8
BD0E580B
BD26A583
BD470F29
3D06D728
BD34960A
3D302B8C
3D778D56
3D407332
BD010CC2
BB5D591C
BD5DAC9F
BD271866
BC866468
BD592039
BCF6F3CE
BD2F038F
3CB1AAED
BAB753A2
BD7C6F21
BD12FD48
3D31F8B8
3B7F469F
3C5CC16B
BD137138
BD196CA5
BC898676
BC4ACD72
BD87D352
BD49D189
3C8F2C92
3CC1E6E9
3CE7A421
3C3CDF83
3D30B877
BD74724B
BD876BD7
BD81A6A3
3CE75C87
3CF947E1
3D3A6B91
3D49350F
3CAA8904
BD02F90E
BCB4FA16
3D290E67
BC1707EC
BD76C268
BC1FE948
BCD9D86A
3D866E63
3CAC6A97
BCD3E3F4
3D0B6CF2
BCEA0D31
BAA969E4
3D23EE82
3D457426
BBC670FF
3CE04EFC
3BD5B2AF
BD844C88
BD4160F6
3D33E84E
3CA0D6E2
BC323C57
BD0D9E6E
BCFCBF6D
3C6CAB98
3D0BC9D1
BCF83C78
3C903354
3A13B809
3D0CE6B4
3CB8D6EC
BD8A41C7
3D332432
BCEB0C62
BD0350B8
3CFCD954
3D187D31
BD0D3C9F
BC2831E4
3D484373
BCCB8CCB
BD048E9D
BD4D677A
3D25F038
BD10785D
3CA51DF8
BCE215B5
BC3FC0D8
3D2C514E
3C86EE5C
3D1635B8
3D470CFD
BC452CCA
3D61AA19
BAE53F56
3CB78A3C
BBC5F463
BCF47FC0
3C841799
BC61F366
BD206463
BC6D8244
BC8CDBF4
BD742465
3D6D26F3
3C5095AF
3C20708E
BD5D7972
BD88B655
BD4715ED
3D1FD5CA
3C1495AF
BB8C1E63
BC1647F3
3CFC3F01
BC446AD1
BD301164
3D1C8EC6
BD2DAFB6
3D617659
BD02998F
BCAB24C2
3D1F0B0A
BD767687
BD3A8CBE
BCE3C92A
3B60DB29
3C66AF8F
BD0B5C5D
BC851005
3D56CC6A
3C4EC1BC
3CD60E19
38C4706F
3CA364E0
3CDC8188
BC8C542E
BC843A91
3BFBA279
BD580A88
B8D5E971
BD4B551B
BD04261A
BD4A3251
3D5772C3
BC9B7895
BCEF7584
BCA58754
3CF0EBCF
BAE08849
3D5D8D5D
BCAAD417
39FDEEF7
BCAD475D
BD667754
3D456ED4
BD40722F
BCA1E202
BD754500
BD46E602
3CEF5AFF
3CC3A821
BBE7F6F9
3D4317D1
3CE5CCE9
3D6523C5
3CE8DA71
3D325B06
BBECB722
3A8EB3A6
BBE5CC40
3C1E6FBC
BD0EB6F5
3C8D70D7
3D02BD9F
BCAD74FB
3CB983AF
BD6FDA84
BBCD3A31
3CCF2477
BC4C5DD5
3CB2DE93
3D15DE3E
3D4091CF
BD462D29
BD150EC4
BC2D6D24
3D531AB9
3D66C112
3C9D34A3
BD874C4D
3CC7A960
3C3D0646
3D05B1E9
BD338187
3CC38376
BD0E7A43
3CF3C6A6
3D3BDAA9
BC334D73
3A184429
BC41CC87
3D6CA0AA
3D414BF7
BC8D6A9D
BD4DD3F4
BBDEB0F8
3C47C99F
B72BF72C
BD24DA1D
BD265026
3B9F6869
3D232B80
3B87D787
3D4CE2A2
BC0072A7
3C8A75B1
BD36ADAF
3D4771F2
BD5B51CC
3D860ADD
3D0B3A14
BD267F64
BD0DDE90
3D0AEAA8
BC499AFE
BD10C1D5
3C586763
3D74EE17
BC453166
3CC69F2A
3D54CDFA
3D0A5986
BD292186
3BBD1F1C
BD422291
3C38B962
3CE0A297
BCA8DFAF
3D1ED606
3CF2054E
3CEFB852
BD5E9F32
3B5B9041
3D30300F
3C35A1DE
3D227F25
3AF59C2F
BCDAD9BA
BD3A4660
3CFEC5B4
B9D21472
BCA8A234
BCB2E7A2
3D17970D
3D3F994B
3A8E5316
BAE1F224
BD37B546
3B3FC537
3B726368
3C7EF3DB
3BECE2F8
BD4FD07C
3D9DC803
BD915F9B
BD0FFDD7
3D4AD4A0
BCB9502E
3D46D0A5
3B81D835
BCEEF009
3BE823E5
BD0BAB11
BC4B9C96
BD2C6FFB
BD41F38B
BD8974C3
BCEE6595
BAED7107
BCC5681A
BC94740A
3CCA0EAD
BB40D57C
3D0ED4C4
BB050D78
3C8F44D0
BD3329DC
BD361E0E
3D607EB8
BD629B1E
BD5E0B86
BD833156
3D43C13A
3A642A91
BCBA9681
BD541076
3D32820C
BD60624D
BC8FA600
3D252580
3B955F0C
3CB37DCD
BD6BDC66
BD7405C4
BD50079F
3B6A04CA
BC06E90F
BD71EE3D
BD68B215
BCE3559F
BD80B060
BD501229
BC2BDD9D
BD12ADB4
BD4308B5
BB5C94F0
3D2B2800
BD68551E
BD6465F1
BD5B8426
BD287462
BD4F4E47
3C703E4B
3CC66D67
BD537D62
3D7096A3
BD463FEC
BD5AF161
3C7757C5
BD652EDA
3C621162
BCACCE85
BC4FE26A
3CEE4D70
3D0B78F9
BBD10148
BD2FEABF
BC03EB38
3D1BAE6D
3C985F06
BC83AAA6
3C743640
BD4DE67E
BC0DFC10
BB6A9003
BD5F526B
BD3209FF
3D16B1D5
BB8068B3
BD17DDC6
BD31DFA3
3D569B3D
3D239729
3D283A9D
3B54C95D
3C13DF39
BBCFE3D3
BAE85F62
BD350F1A
3D4B2F88
BD2E5414
3CBC7B73
BC9D3E3A
3D4BF496
BB61DCD0
3D4F6B0C
BCEE3790
BCD5CC28
3C0F72A8
BD62A151
BAAC8C5D
BC6D06C3
BD23C725
3BC3B8C6
3CE1F335
BC898986
3CD6E6DE
BD0CA3FC
3D2F12F8
BCD8090A
3C059EA4
BBA47C64
BC887B03
BBE9FD5E
3C902444
3D3171B1
BCAF1DCF
BC9011D2
BBA37056
3C8BF83C
3C056AC9
3C12AE10
BD07CD1D
BC0A1148
3D65928A
BD512467
3CC05C64
BD22323E
BD0C92AE
3CB56648
BD2C48D5
3D2094E2
BB392AD7
3CD7C06E
BB8BBA1B
3D4A087D
3D652EED
BC44249F
BD0EB245
BCA0204A
BC7C3444
3D182425
BCE41AEA
BC47A9C5
3D405D51
BC493101
BD25BFD4
3D32B9D2
BD863602
BC62C6B0
3CEF8BE5
BC5184DE
BCC2EB4C
3C83CD47
3AA813FC
3C1684C4
BCAA3BB9
3C5439BD
3D2277B7
3C57689D
BD7151CC
BCB32E31
BD34D378
BC5F3C44
3D4BC3C1
3D2D7248
BD3274A8
BD6994EE
3D4E42CE
3C78029C
3D689FBB
BD5F88E6
BD15FFEE
3BCE76C0
3D49049E
3C248F92
3D34D758
3D61AE69
BAD6144D
3D8D89BA
3D25B8EA
BCE1A9D0
BCDF13EF
BDB5E94F
BCCEBF5E
BC0206DA
3C854E72
3D033DAE
BD029C9F
3D602FB9
BD15263E
3C2F4DE6
3B14C921
BBFE6617
3D16BF3F
3C650276
3C9FDF08
BD0EA93D
3C93C67A
BCE8ED86
B99864B8
BC331230
BD60EF3F
3C818A4F
B6E4F735
3CD0137E
3D58F27E
3D46E20B
BC199815
BD6B8794
BD27E3AC
3CA22F24
3ABE5544
BD057E75
3D75022B
BB5D76CA
3CC286B5
3D1637B1
BCF5BA1F
BD15BE5D
3BB7222C
BC77DBA0
BCD77B02
3C89FD44
3CCCDF3C
3C0D64E1
BD0AF6EC
BD2B49C0
3CCB3ECA
3CBE4951
3D6468D3
3C959DB1
3C20E675
3D12CCD1
BC003887
3CCD0FE7
3CA06F4C
3B2DE0B4
3C1458C8
3C9159B5
BD6125AC
3D5B5E44
BD2BF4C5
BBA2035A
3C27E105
BD14D1DA
BC8CEE82
BCA6A710
3C8F8B59
3BE58BE1
3C87E83F
BCB206A2
BC1DC47F
BC8482E9
3D06C91C
BD899E42
3D81DCA7
BC8B9525
3D8BF08A
3C26B263
3B3F57A6
3D4087DF
3D6BB72F
3B8AD87C
3D0C3603
BCA8970F
3C86D7AD
3D1FAE00
BCC8FAE3
3D59972A
3CE70814
3D600DC1
3CBECC3B
3C523DC7
BC299DC1
3D2BD0C1
BC933108
3C14C11A
3D3C4C44
3B554A86
BD272459
BD4B0E54
BD37D383
3D57C93C
BD0DD2F0
BD37E50B
BD668ACB
3D1DCB1E
3D5D3FF3
BC1E0ADC
BCBF637D
3D172CE4
BC906B63
3D466DC2
3C3734C6
BC94AB8F
3D0D223B
3BDAA9C9
3CC3379C
BD3D8A18
BD80FE10
3CF94A3B
BC903CC7
BC981C38
3CEDF22C
BBD8A307
3CBB2C71
BD3F03E0
3D211095
BC3EEBEF
BC8A7E27
3C3FEF55
3A6CD964
3BE9E61C
3D7810D9
BC6C902A
BC22E969
3B7C9879
B9F8106B
BCA827E9
3D37EE4F
3BB07BC2
3CE7AB81
3AC84DE9
3C92BB06
BCAA061A
3D179FC8
3CF6083D
3C3C95E8
3CA7E115
3CC48BD1
3CFBB764
BD51F570
3C5DC41B
3CB51328
3C96056B
BD5843A1
3D105B74
3D3A7FD0
BD381853
3CEFCFAD
3D44A6D9
BC1C511C
BCF592EB
BCAC82D2
BCD380C6
BCECE75A
3D0D0DF9
BD05D5FF
BD0E795D
3D63F687
3BE5E638
BC025AA9
BCC4D73A
3B94D97B
BA3CE493
3C5D4DED
3D0AE8BF
BD6B5276
BCB6613B
BC91A5EC
BC67A74E
BCBDAED2
BD55C9AA
3D37940E
BD526590
BC3ADA9F
3C67B734
BD3292BA
3B29E415
BD116F05
BCE50B4D
3C0E747F
BC91B638
BD092EB9
3CE83829
BD72110F
BD02724F
BD3BC8E7
BC35DA2C
BC75F64E
BD2D884B
3D3FB2E1
BD450DDB
3CA4BB7A
BD6873B4
BD0B00DA
3D5AF176
BCF363CB
BD34D28E
BC0C378F
3D4E9940
3C640314
BD891106
BD498F66
3D25B0D1
3C48A43E
BD308621
BCC2B1C4
3D2B495C
BC08423A
BD2DBC27
3D06FF42
BB241A0C
BB673884
BD22D438
3D15C07B
3CA6974A
3CA17FB5
3C929A5F
3CD1A82A
BC48121D
BC0CED08
BB436AA6
B8A583F0
3D28E5DF
BA670463
BC2DB720
BD1D7D03
BD29E868
BC01B846
BD3727DC
3BC34131
BD43173E
BCF159BE
BCD061F4
BBF7E505
3B0BC09D
BCC7E6AE
3B093459
3C901FA6
3D325D65
BD1FEB8D
BCFCE84B
BCD31DF3
3A88DC36
BD54C978
BD10AB77
BD73F5BD
BCBF12E9
BD3CE7C7
BD2948C9
BD27979A
BCCA9F50
BD0B74B7
BBEA170B
3D476DC3
3CF75512
BCAB74B6
3D370D5E
3D0F0ED5
3CF48A56
BC25A273
3CBA8A65
3C9CF766
3D10536B
3CFA5E88
3D0D2D4E
3CE5A0F3
3C955F5D
3C3306D7
3C77300E
3D0F3FA2
BC78E802
3D06BE73
BC027E19
3C8EE470
3D1939F4
3D33FC25
BD0F85F9
3B5B91AF
BD3BCD16
BC866E66
3CB4CFD3
3C8C6C27
3D2283F0
BCF75BD6
3C83B158
3D172D71
BD237397
BCC08B1C
BD4B77DE
BD5F32DA
3C7A9CB0
3BA65CB7
BA9D04B6
BD88B072
3C4330AE
BD65785F
BD8CB1B8
BD4A817A
BD3E55FD
BD2D74A6
3D468221
BBFEF747
BD34DD01
3D3436B2
BB2B5071
BC835764
BAA71742
BD7EAB49
3CD01145
3D723A2D
BC30026A
BD71C22A
BD3076F1
BD8A95A1
3CD7CAF2
BD1094D9
BBC93528
3D36D4B3
3D7AEE02
3BE7D54C
BC5D9365
3CF18096
3CDCAF5E
BD12934D
BD7EC365
BD392C71
BD1298DE
3D1F9E3A
3B54F3B9
3D53A76E
BD6DA95B
3C1FAB3F
BD32476B
BCC739CE
3CC8890A
BD40E7A2
BCEC37D2
BD3AF84B
BCF2ACCE
3C8EB0B3
3D113CDB
BC84857E
BBC7138C
3B7E08B1
3CE53B46
BC9E300C
3B6F6CF4
3D099C43
BC85B39B
BC07CF45
BD43889C
BD01DAFB
BD37D3D8
3D322C2D
3C1208B7
3D5112D3
3D280DB4
3D3E3EA0
3D00E600
BD582677
BBBEBD1B
BCBE9C50
BD657734
3BC7B2E6
3BCE6A82
3D284CEB
3C2E3A1F
BD65E91C
BD81D48F
BD169EFC
BCDF2E3A
3C5925B5
BD268874
3BA51D3C
3A8E97AC
BCD2FAD8
3C94C939
BD4EB862
3B80C146
3D4A0F8A
3D50D029
BD07A3D3
BD0B9757
BD1EDC3E
3D26F698
3CF69263
BBCBD81B
3D737E04
BC90CFBF
3C0EE444
3C3A127D
BD7DB4FF
BCF9A2BD
3D2AA682
3D29B185
3D2CC3F1
3BFD8D65
BD82EE6F
BCE02912
3D20E008
BCE4036C
3D34A7F5
3CA8321D
BD4DBB01
BD78756A
3D850907
BD311D3F
BD39F2CF
3C046E70
3C092456
3CD27DAA
BD4653F8
3D4893C0
BD385491
3BA195C7
3D167851
BADEB6E3
BD386B49
BC86A2C8
BD5FF847
3BF6FBC5
BB8BD654
BC957724
BD576B92
3C0B1215
3C405E41
BD040109
BC212359
3D56CE2F
BC52B603
BB7EE61A
3D0FA28A
3D45FBDC
3C519DE2
3C4D5E80
3D59F198
BD22F3CE
3D03A187
3D7F8A9C
3C8AD83F
3D569A7B
BCB9C52B
BC0880A5
BD224C9D
3CD15C3E
3D58BABC
3C99AC26
B9BD7DAD
3CD8B175
BCA9D7EC
3B8329C0
BCC106A6
BD56DC44
BD4200F3
3D47B3D1
3D6FAD7E
BD2A895A
BD32676D
3B595DA3
3CC1C357
BD770004
BD7529C2
BD07223B
BD378CBE
3D3D46CF
BD260B6B
BCF4BE1D
3D338100
BD47DB45
3D00149C
3C5F0A29
BCB4C013
BCDF83FD
BCC4A606
3D7815D0
BC09EB2D
BC0BBB09
BB87E79B
BD40DAA3
BC2E50ED
3B039ECB
3CADEF83
3CC303C8
3D0CE581
BD643B85
3D09F81B
BD2C093F
3CE467DB
3C98BE59
3D6DEF06
BD64D79F
BD5E6CF9
BC2DA925
3D522246
BD578755
3D0E37E6
BBC53D84
BD359F98
3D0E4E7E
BC051DC7
3CB74758
3C7F67C5
3CF4892D
3D72B59F
BCF4F297
3D97F53A
BCCD0EB2
3D4A4969
3CE54165
BD1C24E8
BC97269C
3C367D8F
3D277CD8
3D814D50
BC80FC4E
BC19323A
BCD1514F
BD16736E
BCB36D64
BC24B1D7
3D48508B
BBE9F52F
3C5811BD
BCB9B14B
3D1C7310
BCB8EFAF
BD437E09
BCC5C01C
BC9B23B7
BD1EC823
BC89E1BA
BC59F870
BCDCCA8A
BD317EE9
BB3DC304
BC1A916F
BCF4CF6A
3CB7BA1D
3D7634B7
BC758E18
BD25EB5B
3B30712C
BBB7F2E9
BD4E7D90
3CE75A90
3C65C771
3D5F64D2
3CF4BF5F
BD0A0184
BB11DCF2
3D67B485
3D4EF0DF
BD883536
3D1022C2
BD58BF2F
3C7D1C6E
3D2BF521
3B378404
3C200BD3
BC5DD725
BCF76060
BD399445
BC91C2E3
BB6056B6
3CF398E4
3D3B80A9
BD538B27
BD90E4D4
3D4C8828
BC2F3735
3D0630ED
3D290D4C
3D4FA0D4
3C82A126
3B82C4B7
BD3D51B9
3D0B4BD6
BD1C0923
BCC566AE
BD633704
BD2D110D
BCEEDBB5
3D7E5B27
3C8BE204
BD2D9C73
BD15D4D9
BD392E8B
3D438A80
3D7B2FA0
BC5C7D47
BCD085B8
3C53F8D4
BD78ECEA
BC9E77E4
BD0F1944
3CD7AB72
BBA0B4EB
BC809D72
3CDF5B6D
BD4522C1
3CB1AC38
3D307EA6
3CF0C296
BD4DC718
BD18386E
3B802976
3C14744C
3CC79215
3BCD4224
3D278FE4
BD39B04D
BD57A1FC
3D6A0667
3C1D3C26
3D0E3E25
BD5F32DE
3D1C9E5A
3C5AA7E1
BD413927
3CDB58D6
BD03F759
3C9BA6B7
3CE4E495
3D2BD3F3
3D589C9B
BD1E5CC9
BD303376
BCEDAD66
BD3F444A
BCFA9F95
3C7C5DC0
3C4BEC60
3D3214B4
BCF9C7C2
BD55E9C8
3CE2CD96
3D2F5F47
BBAB2484
BD44019D
3C86B4D6
BD0FBB04
3D1823D0
3CFEF0A1
3C9CFC3C
BD174005
3D064232
3C46BE7E
BCF2D59B
BD3F69BF
3D648DB1
BB17E2BD
BBC0E306
BC21B97B
3C288759
3BAEBD81
BD734233
BC740D38
3CA8916E
BC43A7F0
3C45B13E
3D5BCE5A
3D24175D
BC89B774
3D1B2F75
BD448C90
BD262B46
BD17B588
3D517859
BD28D552
BC3B9F88
BD03307E
BCF11D2B
3D4CFC17
3D2721F4
3C13C8AB
BC0CDCC8
3C241576
3CCF635E
BC9C879C
3C857449
3CFC2174
3C195CAA
BD33FC6A
BD20814B
3C5979A1
BD83C43E
BCC2F693
BBFC90EE
BC729B97
BD45F254
3C8963D1
3D16D152
3D047CC1
BD017FB0
BD6293D2
BD928026
3D5CFE73
3D2161BE
BD0CDD55
3D1E5529
3B80F870
3CD44BD7
BC59D1C9
3CD7C54B
BCF90B6F
BD48D5A1
BD845963
3BC41516
3C9290F6
3D228F9D
3D0B1776
BD6CDAAA
3CCAF105
BBD4329D
BCD6F4EE
3AC71301
BD64D896
BD25252C
BCA78B8A
BCD1637A
BD3AAA78
BD01F139
BD48D265
3AD32AB7
BD851BF1
3D33A938
BD676EC9
3D394C7E
3C534E74
3D8A5428
3CE3AA26
BC769798
3D1E7567
3C946ED1
3D46EA13
BD7ED06F
3D134EF2
BD809648
3D291DF1
BCCE64C8
BB532043
3A08F136
3D284EBC
3B695064
BD04EDFB
BC1531CC
BC718CB1
3D641826
3C046311
BC5BB35B
BC0BC671
39437AD5
389606D2
BD3A3308
3CF75BEE
3D09C7D8
3C8FFDBA
3D3BDD8D
3D311128
3CFC9CB0
3D47874C
BD95C0F7
3C23122E
3A4A0D42
3BA900AB
BD179708
3C54E3A4
3D50496D
3D353FA1
3C59001B
BD41FAEA
BD14148C
3D05633D
3D1EE577
BD04A6FD
3D503B7E
3D24A1CF
3D67E88E
3D766EBB
BD16AC23
BD6D5E83
3BFFDB87
BD15EE43
3CEADDF8
3D4356D5
3D22B8F7
BD16A3DA
BCF97E62
3BDFE8DF
BCBC9909
BC9ADEED
BD01A0C9
3D432D5F
3D426373
BCA1B301
BB57993B
BCDC74FD
3CE544CC
3D60BB50
BC85E4FC
BD1245E9
3C747383
3D64BA15
3CDA1F0D
BC7EA42F
BBB11B9D
3C6096B9
BD75FE2C
3B8813EC
3D362578
3D1138E5
3CD3E0E6
3C9CE9B1
BB820BC1
BD5D4BA7
BB22B0BD
BD5F9E79
BD5697E1
3AF8C3DB
3C133172
3CCB3EE5
BCE6E8E8
BD392F1A
3D3408B6
3D318548
3D6C13E1
BC5A411D
BD26963C
3D5C9DF4
3B964B81
3D481006
3D141F12
3CE6D883
3C9C69B0
B9A7EF0A
BD4F58E2
3D4E2C64
3D1CF540
3CA180A1
BD43FD02
3CF9FB42
BD54D309
3CFD56A6
BD5A4FD1
3CE56E79
BD2D54BA
BC5E47C3
BB04F414
BA63DE05
BD279814
3D14F5E8
3D225E3C
BC76C15A
BCC3029C
BCEDD20C
3D519F9C
BC5AC02F
3D09062E
BC21B26C
BCB02DC4
3CDD30E2
BC95ECD0
3CE45C5A
BCE0A431
3D15B7E2
BC95E3D7
BD3CB3D3
BCCD9C4C
3D50DE21
3CFD9D43
3D074F03
BCD713BD
BB9A3E05
3D927D65
3CAC80AE
BD14EC63
3CE1E4FF
BD3F4861
3B8720D4
BCB35846
3D4B7C8B
3D0BDF53
3D3171C5
BC204C48
3D475229
BD076CC5
3D0DA867
BC92BC72
3D47748D
3D80E704
3D3293E3
3D647CC4
3C3B3F83
BCCE82A1
BB021400
BC229389
BBF53003
3C0E6559
BD5025F5
BD022B2D
BCE79235
3D008F5C
BC7F927C
3BB8FD9C
3CAA4F18
BC0AC745
BC36BC35
BB0DC90C
3CBE3304
BAF5AAB6
BC05D2EB
BD890F1A
BD532F4C
BC824E7C
BD471958
3D591BF5
3CF733B6
3D495CE7
BD405CA6
BCC6CDD5
3D221A81
3CFBF4C0
3D7EB48B
3C79FC56
3C0C88C8
3D43EBE5
BC9D5E37
BC7A0E31
3D7DC3ED
3B9BE9C9
3D69EBB7
BD857B6D
BD0F4426
BD73AFDC
3B74E033
BD0D3669
3CF542F9
3D231882
3BAA53FC
3D4CCDF5
BA5F753B
BD684202
BACC2F7F
3D3ED000
BBB8CD7F
3D3AF887
3CFED6CD
3D1A1E77
3C4E855F
BD02A980
3C1A1794
BD12E7DE
BC80BDFC
BD2200FD
3BC65209
3C2609C3
3CA7681F
BC9F0C3B
3DA62582
3D04ED2B
BD3F3B31
3D3704F4
3BCF94AA
3C0AC86A
3D42FF32
3D463D0F
BCBE4F8C
BD2FC595
3CB8BFF5
BBAF0461
BC872CFE
3D46E4F3
BD5A91B9
BD2138C0
BCE3D44B
3B30272F
BD0440C8
3BA2B01A
BC38F81B
3CFEEEF4
3D3EF761
BC8BD18A
3D23F559
BB4EB9D5
BC61EC44
3CBDFAE5
BA9B53EE
3BA2EDAB
BD341FD8
BD081E56
3C48F872
3D0F97A6
BD40C2F8
BD80767D
BD660117
BBBA9BC4
BD4CC114
3C8F4D2C
BD20999B
3C93919B
BD6BC03E
3C3458A2
BD35D0CB
BC99A16A
BD11F89D
3D82117F
3D5D7D34
3BF47E95
3C65CB59
BC39189F
3A824F2F
BD09BF7F
BBBF5B3F
3C398893
BCFA122F
BCEB52BA
3D00F5D9
BD60E0CA
3D739AB5
BCED286A
BC19CF69
3C3CBFC2
3D501940
3D822138
3CC9FA3D
3C42C625
BB0A4936
3B74030A
BD833CA8
3CB4D2B1
BCCD81AF
3C0DDF7D
BD57BEE8
BD158A4A
BC2D9FB1
3D4F457A
3C66E56D
BC8AF10E
3CD8971A
3CC64FA2
BD289840
3B1F5B8F
BC7A6B8F
3C51FB2B
BCD2AB49
BD4E6834
3D901706
BD2AE25D
BD27A2E6
BD3FA139
3CDB920F
3CD49654
BC7489A2
BC16E78F
3C36C4C1
3D80FDE5
BB4007C0
3C8B531A
BB94C516
3C832961
BCAEBC2B
BD582201
BD81CC22
BD56744C
BC86766B
BC7C9F25
BD3B9D30
BC57C620
BC74EE4B
BD254712
BD0875B6
BD398698
3D06799E
3D52F7CE
3C65FF5B
3D6C88EF
3D86DC2B
BD452A80
BC43D0D2
3D8236B7
3D3D18B0
3C0829D7
3D2FB52F
3D85CEA9
BD8207F7
BCD8BCC3
BD573AD5
BC8C3382
3D0AEFDD
BD11595C
3D29C23F
BD2482A7
3CE3759F
BC3732BC
3D3CA53A
BCA6D027
BBAB645C
3D470A75
3B8A9D6C
3D108541
BCA24B13
3D089B9A
BD20EE46
3C6CCAF4
BCF879B8
BD87716E
3AE1FDFB
3C23828D
BCB791F5
3C61CF5F
3C43DC80
3D0B532E
BD27B771
3C330ADE
BD4706C5
3B542608
3CBFFF1D
BCF27A00
BCFA5BAF
3BF113EE
BD431CD7
BC780444
BD2AE2B1
BD19F5F2
3B05BBDB
3D51E0F3
3CE9F08B
3B6670D2
3C0B82D1
3C4B7D13
BCCCEC31
BD38894F
37E10F2A
BC99541A
3B0D13D8
BD86A64C
3D220EA2
BD07A46D
BD1552A3
3D52C653
3CB6A6F7
3C48F42F
3AACA26B
3D6C9726
BCF4C6D8
BC84BE82
3D812353
BD02653B
3D2D242B
BD33A4EF
BCC21510
3D903308
3CF21FDA
BA504603
BC2AAF41
BD2612FA
3CA54DCD
3C92C149
3C92ED68
BCA3C9FE
3BFE479C
BC94DFE0
BCE2DF83
3CA7B2EF
BC64C193
BCEEF293
BCFE6644
3C1C300F
3C7A7194
BD744B2E
3C247F1D
BD6EA5F1
BD18EC43
BC5FF966
BCA86A78
3CFDA912
BD1500C4
BD5A7D30
3C3D0612
3D14054C
BD1CC458
3D3B2A60
3D653B69
BCD3EEDB
3C0E7DEC
BC7CF889
3B2B356A
BB8E589A
3CF0BFF5
3B7A48BF
3D0849CD
BCEDA9ED
BC90BAE1
3CBA5B71
BD482274
BD7E6065
BCE296ED
3D44B1F2
BCDE4A9E
3CCFC863
3D22FD39
BC8D4C19
3C81A3D2
3D472204
BD039C4B
3D0FE8DA
BCF48DA9
BD4E19C5
3B89ED1E
39227881
3C629DDF
3CB334D5
BD83862C
BD55A18E
BCFE8871
3CB10890
3BA7A77B
3D431DDE
3C929F28
BC475058
BD07DADC
BD73D2EB
BD443C7F
3C86781B
BD1559AF
3CC6D8D8
BCFCA044
BC44F795
3D01673B
BB926CA2
BD889EBA
3B71CF8B
3CA35EE3
BD359BF9
3C474FA6
BD7549AF
BD8D4CDC
BCD87F4B
BD2E7546
3B0595E8
3C3289AF
3D2F3BE4
3C6E4980
3D361DA4
BBE7C603
3D5FF288
3D246ABE
3BA7E764
BD4B0AEC
3D305F7F
3D1C5320
3B983B6C
3CC13E2E
BBEC4441
BD83DD96
BBB5ED9E
BD5CDD15
BC3FEE84
3D1706E5
BD2A62C7
3D4601CC
BC64AC18
3D014DB4
3D20FAA6
3C93666B
3CAE30A3
3C86E9EB
3C15F6D1
3CF19380
BD50E579
BD2D974A
BD7787D4
3A2A5329
3C996A7C
3D05AE2D
BC4A3E77
3D2DD866
3C85D1C2
BD5D41C0
BC84C556
3CF30BE0
BD184B1D
3D375466
BD80ABDB
3D24D3A3
3BD15C9D
BC4581F6
BCF92120
3CD89776
BCB6A9A3
BCE4DC32
BC629124
BD6A5D4C
BD34A644
3B23A637
BD5CFFF2
BC8BFDFB
BD52308B
3D361FDD
BD635DC5
3BA30C30
3D717600
BCDF91FE
BC26DC6C
3CC53836
3D53B109
BD3C2C20
3CDC83F1
3CB566B7
BD86E544
3CBA4158
3CDCBCA2
BC988079
BD300F02
BD47AEDD
3CF514B6
BD51F46F
392C9F7B
3D3F6553
3D70D291
3D4DA405
BC2848B4
BC5C82CA
3D0A44F3
B95E6E59
3D564376
BD60C02C
BD1D0561
3C80AC64
BCB66226
BD096439
BBF0A9DF
3D54C7C7
3D526F53
3C1FFE25
3CD0301A
BD0D5B4F
3B9A4C08
BD614ED0
3CD8614B
BCA37DEC
BD0D9506
BCE53C1A
BD544CDF
BCCE3A89
3D2CB31F
BBDBBE27
3AAB21E1
BC037007
BD74DF7F
BCAA383C
3CBCC459
3D7C3599
3D67FED3
BA54665F
3D0B1905
BD3D0520
BCC6D239
3D2E047E
BC5D7EB4
BA0B359F
BCDA89F9
3BB49399
3CB0FB4E
BC784B2E
BC1AE4C2
BB462FA5
3D2E6D4B
BC346423
3D0B4F44
3D03ECD7
3D5B1006
3CEE4210
BD24F77F
BC2DB1AD
BD3BB86A
BD3969DF
BC8C243F
3D279EF2
BD285292
BC20F1DD
BD7ECC7A
BC7036AA
BC25AAAB
BC84DC0E
3D515611
BD755D75
3C62AE58
BD0BB547
B9D10C41
BD6AED91
BD2DC73B
BCC5E654
3BD6D171
3C8D88C1
BD47BC99
BC6A5AB6
3D11CAC6
3CA7F138
3D02AEC0
3C760046
BC409C70
3C8DC3B3
BD107A6E
3D37AED2
BBA60F28
BC1D86D7
3D3D6EDD
3C684844
BD3533BB
BD628743
BC992386
3D505B7F
3B12A75A
3D2B6697
BD3FD0AB
3CB067D7
3B61E2C2
3D2024E6
BD7FD3C1
3CCBA516
3D59F710
3ABF16EC
BCC6E97C
3D3457C5
BCB07AD8
BCF86B5D
BC90BDA2
3D160931
BD15A778
BC34C26A
BD4A28A3
3CAFE577
BD71ACFB
BCA92647
3D3374BC
3C2B27AF
3D178577
BD166AD9
BD802F13
3D2C6A88
BC345E68
BD3EE661
BD65F2B5
3D65C274
3CD7809C
BD4ECD6D
BC2211F2
BC6917F5
BD3CDEE7
BD380063
3B4C4FEC
BC8530AD
BCF07B96
BB47792D
BD6C9A06
3D608418
3CEECE39
BD6300D0
3CA42F28
3D5EF986
3C8003C9
BC6CFF51
3D0266A0
BC879740
BD0D0915
BB278802
3CE7A7F3
BD22B634
BC76F327
3CF048D4
38D68DDB
3C8A9BA4
3D235A7C
3D12F014
BD4E2459
BCF8C4A7
BD30A195
3C2E9384
BCF67B2D
BD7AFB1E
3C809EEF
BC4CE224
BD0F7524
3D00B944
BCE84561
3D39AF84
3C17EC47
BD36F8EA
BD321E9F
BC9F4287
3D3D6337
3C4C08D2
BD6B7F1A
BD8C5B78
BD52BD36
BBC0D2B8
3B64544A
BD8ACD07
3CDB31BE
3CCBF772
BCD25E1D
BABB8E92
BCE02791
BCC9BADF
BBBA71AF
3D2D881A
BD2777D1
BBF92BF5
3B8F8F2F
3C1C2EDE
3CFB23B0
3D5E7512
3D539094
3C8A27D1
BB90B812
3D87DDAA
BD38CF6B
BD2AF3AC
3C7F31AC
BD0E573E
3CE93308
BD59507D
3B27B3DD
3C84DDED
BD0B6CFC
BD169155
3CCC9A38
BD252579
3CA3BC78
BD5AC5A3
BCCAEB1B
BCC52E5C
BB973ADE
BD4CEE17
3D3D945F
BD190F8C
3D2A9935
3D418EB5
BC04CC33
BC4196C8
BD37DCE0
BC48110E
3D1EE278
3D42AF21
BAF14C53
3CBACA99
BD19A223
3CDF00C0
3D138B05
3D3A3ACD
3C0B04C1
3ACA9D70
BB616176
3D5FB9A4
3C48AB33
BD8D418B
3D3EDB1A
3D092C7C
BCE92E3A
3D324918
3D02A101
3CF8F952
BD78F8AD
3CEA921A
BC1795EC
BD180BED
BD65B3B9
BC8B79F6
3CB4A7C4
3CF1829E
BABBE181
BC7DB5B9
3C2F587E
3D040F61
BB87E22E
3CD3A228
3C1FBA21
BBBAF82A
BC9B3191
BD516B25
3CB6AC95
3D37F044
BC397569
3CBB6EB6
BBE0671B
BCC52B12
3D87A1E3
3C71BDE9
3B790727
BCA3A482
BD4DA14A
BD204F35
3D48F7C1
BB9984A8
BB43EAC3
3D6D3775
3D3AC01E
3CFD928A
3BBEF416
3AAAEFB4
BD363EA4
3CD79156
3C9C5049
BCE018D8
BC00EF83
3C9BDB14
3CE7966E
3D0C6C76
BCA2F793
BC7D3E25
BC06F0F5
3BA2A25F
3D2C9E87
3C3165E8
BCB40E71
3BF79F36
BC03C556
3D38C802
3CE8F2E0
BD5B8638
BD42D216
BCDDD2EC
3B507AD4
3C09ED42
3CDE86E2
BD2D7763
3D0CCCBE
3C25A3B2
BCB3095E
BD8E7E90
3D97C259
BD03D31C
3CBB775E
BB7CFC35
3C333446
3CB15FEE
BD3B6950
BD2B782B
3D90BFDD
3CA34B5F
3C8DA0D1
BC48A3A9
BD4182C3
3C745D1D
BCD81457
BD78419A
BBFD1468
3CD42CF6
3CA42F45
BC932EFF
BD78E890
BCF8A5B1
BC5C0AD6
3CC724FF
3D6E5AF5
3CD29467
3D8BCB46
3D059D4E
BD56DA9C
3CD402E1
3D38D2A7
3D7B9F3B
3D38237C
BD82E136
3D16A3F8
BC102403
BC28E0C1
3D203477
3D017ED2
BCF0F8C1
BD734A55
BC75A452
3D73CE91
BC50F95D
BC76EE43
BD30F6BD
BD1F3D43
BCE054E6
3CE4C435
BCAA4398
BD0CC2B9
BCFA1387
BB92B9CD
BD23BFD0
BCB441C5
3B373B36
BC936A94
3C257274
3D07D336
BCB522EB
BCEB81F2
3D09BEDA
BC18C8CD
3D3DDE77
BD231943
3D285E2D
3D50524E
3D80DB5A
BD88C149
BC86BFF6
BC0D8A4B
3D529345
BD75B5DE
BD429970
3C317737
3CEF8169
BB723639
3D1097DD
3CB07192
BD45205C
BD82C91C
3D33C8DF
3D2C992F
BCA9A08A
BCDF96F1
3D4ADCF8
BD555CF5
3D045251
BC8C514D
3D67DFF8
BD80E1A7
3CEC096C
3CE20620
BC42546C
BCB397B6
3C2DA0DF
BD614836
BD33321F
BD06BE84
BC2CBACF
BD329EBC
3D4B6CC2
3D2BB279
3D7B7A66
3BFDAD25
BD2E8F07
3C97C3B5
BC72225B
3CA81413
BC9E0DD1
BD6ABD77
3CB66B2A
3BA6B724
3D44629C
BCD0279F
BD5D924D
BCCB0D31
BD3396A0
BD1659D1
3D404B88
3CAEFD9E
BCA72D42
3BEFBC65
3C498614
BD2B11B4
BCFD3DD9
BC426E55
3D29FE8D
3D4DD335
BC8BE325
3C951497
BD5E2602
3B6725FC
3C2C4B0C
3D026305
BD34D95F
3B8A1F5B
3D048A15
BD403AF8
BD1DAC3D
BA6004ED
3B0CBABA
BC3DA854
3CDD7E75
BCD3E3CB
3ACED7A4
BD69B928
BD3F7662
BC8028DA
BD1B0EB6
BC03C165
3BB80D87
3D34CF0A
BD74DA2E
3D6142A3
3C6BAC4C
BC5EDC32
BBA8B1C9
3D23AE0B
BB16A244
BCE587AD
3CC1CB14
BBEC5933
BD1C8201
BD5BDA90
3C8B87A2
BD2FAC66
3C9A6D4B
BC97F3C4
3D6F0192
3ABFF728
BD11D63F
3C2BFC01
3C8DDD13
3D35B398
3CF78893
3D2F4C24
BD7CF9F4
BC498BB5
B96C875B
BD32CC31
BC54FA5B
3D86CB93
3D7D78E4
3C65C9BC
3C3912DD
3A8700A5
3D0719C2
3B157133
3C18E81F
3C4E3CBC
3C1B774A
3D26AF55
BD74D29C
3CD31E06
3D77C147
BCF24FEA
3D3FE796
BCA30FA0
3D3E2088
BCB45876
3C4304D4
3D537AB1
3D874D0D
3D3D4324
3BBC4C6C
BD4B1C34
3C8EADF5
3C5A88EE
3C1C4AD7
BD09AAE1
3D0325B4
3990C2D9
BD073C19
BB02D20B
3D80044B
3D164450
BD16BCA6
BD219768
BD15BA35
3D2AFA2C
3AFB4ADA
BBA71380
BCC1F5B6
BCA57AB4
BCA0923F
BCFF61FA
3C3090FC
3B6E1BEE
3D195DDD
BB7600AB
3D1358D4
3D23A8F9
3C4072C8
BCBB8F24
BB05BF13
BCF05A97
3C2AD2E7
3D550D56
3CD98415
BCC03C00
3D09767D
3D1B82A6
3C7D7DE0
BD27F9BC
BD28EFD0
BCE9D4D9
3BD263B5
BD065E22
3B5EAA76
3C96B687
BCC82ED9
BBB840D9
3D31E11F
BCBCE5B3
BC4DC14D
BD248BE3
BD5AD0ED
3D38E2FF
BCB7F4D7
BD030E28
3D351CE5
BD434F67
3D520337
BB4B0D6D
BB64E184
3C24B94E
BB45643C
BD0C3C4C
3B85A82F
BAC3EA09
BAE9ED37
BD52E721
BCBB245B
BD61BBB5
3D5031B2
BCFCD570
BBF80F2B
BD13C728
3D8390C1
BC132B71
BCD3FA31
3D564B9A
BD31E596
3C962208
3CAF8038
3CD94E62
BC69B0DC
3BFAC414
3D193124
3C6C2625
BD1F11A6
3D1ADF7F
3D79FCD6
BD52C2DC
3D4E2C09
3D4AEFBF
3C960A6C
BD58DEE0
BB080C72
3D3D20D9
BC63C4F5
BD566087
BD4C1307
3D38507D
3D1982D1
3CBAF01F
BD418965
BCAC3BFF
3D88F128
3A07FFE6
BD513810
BCCFE5B9
BD3E4AFB
B742566C
3D0C206C
3C6D4678
BD87CB87
BA566010
BB12331A
BC9DAA49
BCEA6571
3D63538B
BD21E221
3D72EBB1
3CEFBC5E
BCFFA757
3C5BA212
3C9918D8
BCD29BC7
BD20B376
3D134AE1
3CF1D8E6
3C955F51
3BF37661
BD4483B0
BD18D591
3D143823
BD760B69
3C40E6F1
BD3FB536
3D3ED77C
BD720235
3D4459AB
BC4FE29E
3D6EB382
BC9AFFE0
BD732CD5
BD4C3E70
BD00B0BF
BC9D07FC
3CA3F5DE
BD20790D
3CBAEE20
3B3559FF
3A8FB872
3C2421FB
3CF24E73
BD58A823
3D1D9428
BBB6B231
3CB6F61A
BD1EEC7B
BCC472D1
3D1B9D4D
BD1F3327
3C4AA708
BD2F23D2
3D0FA571
BBDAC72F
3D13B4E7
BBB3D8E6
3D244C94
BCB1FB92
BCA0153F
BD7F269F
BD73B2EB
BD4CA8BF
3C8C0BAC
BD5A5ACB
BC86F7A3
3D5AFBF7
BC98551D
3CF1A90D
BD52EF35
3D350F6D
3C89827A
BB792F81
3D3CD2D8
BC9DDA9A
BC7CFBA4
3CD098EA
BC856CE1
3BB30660
BD15520D
3C4027F1
3D3E6854
3D61E895
3BCE0F9E
BC05477D
BCC89976
BD608B16
BC7A263C
BD6C76C6
BBB3A55D
BD18E833
BCA36786
3D5FDDB4
BCE27985
3C645DD3
BC0AEBE1
3CA1CE73
3D299B9E
3D46000A
3D484826
3D094BD7
3CF0BD1A
BC98587C
3CDE3703
3CD01134
BD81DCDD
BC8EC0CE
3D153D85
BCF1B8A2
BD2CCFC4
3D485F25
BD0738D3
3CEA7379
3CCA9727
3CD58D84
3D5387CD
BC770943
BD458A38
BCCE6B8A
3D8201F2
B982E8C7
BA8396FA
BD5BD4D8
3D4B0B94
3D21BE55
3D3E6E37
BD55F8CD
BC89BD4C
3CE2BC8F
BD5FE70E
BD4BDC3B
3CBA912B
BD5FFC98
BC3F01E6
3D2012C7
3C9377A5
3D20E979
3CB3A8B1
BD1677C7
BD8D591E
BD2FC449
BC4A0A1C
3C9DD1CD
3CC83676
BA3167C9
BCE23E27
3D47C8B0
3D819729
BD153825
BC87A4C4
BC433DFB
3BD65866
3CC4F7D7
BCF758C4
3CBBCD22
BD029806
BD07E57F
3D0134E8
BD292161
3D7B95AB
BCEB68D4
BD36BEF7
3D61ED99
BD00CD88
BD21520C
3A368911
3D340B29
BC34F261
3D4588F2
3C10B19A
BC7D4F00
B9CA3108
BCAB014E
BCDF2CF1
BC46C564
BD076855
BD4412EE
3B81569E
BCA828FD
3D7DDAD9
BD939028
BD365FB9
3D2C764F
BD3837FD
3D690655
3CFDC9FC
BD40F8F9
BCE3314D
BBE11C00
BD3B5D78
3CC02837
BCF2D5C6
BBCE2F47
3C10211F
BD77671B
BCF1D19A
BD0F0986
3D4148D5
BD7AF680
3C9D3556
3C6E1171
BD1A1CEE
BB4CF630
3C30DF0E
BCEB7899
BB949C10
BD3F0B14
BCBAA68C
BD5C47B6
BD51503E
BC4DD7F2
3C5DA31D
BD1A2A83
BD060FA4
BD29BB89
BC0A91F4
3D14560D
BCB2B676
BC91FD4B
3C8C50A3
BC6B9532
3D84E7F1
3D714FCF
3D3A27BA
BD2372BA
BD8E0D32
3BA5E560
3D820285
BCBB952F
3D05B1A6
3C6536A8
BDA1B794
3CE6A0BC
BD82F7B8
BD7FFD88
3C0B96A1
BCD4691F
BD663E0A
3D255F3E
3C34F326
BA955EAB
3D3C10EF
3B369F5A
3D04B65F
3CCAFC59
3D1E678C
BB6FBFEB
3BB85CED
BC71450F
BAD3E8FD
BD5B1C5F
3CD032F9
BD586A8C
3D400230
3D785931
BB3CC493
3CA46DD6
BBF23EF3
BB18BE05
BC487AD0
3AAAE916
BD2E9E8C
3D633E28
BC3C1B0A
BB42DF0C
BD02F421
3D816655
3CEAC7E7
BD00F3CA
3D0A7A26
3BBF1955
BCE46E49
3CE6A25D
BCF19ABE
BD38E7A7
BB7139EC
3D2FA19B
3D0AB19D
BD3761B9
3D858802
3C99144D
BCD7E706
BD0F5964
B94F6470
BCE3F8DF
3C35632D
BC870A0C
3CA1A8BD
3D2186DB
3CEA96C0
3C7B456D
BD6450DF
3D1DB051
BD20FD95
3D0E2CAB
BBFB6210
BD19AE6D
3D69F0EB
BC93E8D3
BD618B42
BC843A2A
BD68018B
BD03A275
3D21572B
3B549333
3CC2E0B1
3C85C1CD
B9F3F9CE
BD80E4E0
BD3B4E43
BD1C6038
3C46EAC3
BC814FE4
BCC56971
BD7B167C
3D4CB85E
BD7CD2FA
BCCE9E17
3D598618
3D48B6CA
BCE12461
3CB2DD17
3CE42FA9
BD218675
3C8440CE
BD14E3BA
3D0AA39C
3C93AFD4
BD9BAAA8
BD04B125
BD88977B
BD30153F
BBAA2B8D
BCC7E1EF
BD19E0D9
BD07FF7F
BCF63DDC
3A0E5F8F
3D3EA393
3D6C5032
BD1EF0E0
3C94C895
BD4A22F9
BD7B920C
B9AFD54C
BBF27543
BC8E7EEB
3CA2FA83
3C9DF298
BC89AB69
BC72561E
BCD9DC29
BCD51438
3D595662
3B474C66
3D21B9FF
BD2785C9
3CEA77AC
BCBAF2CE
3C3F7596
BD704FCB
3B0FE076
BC88F89E
BD65C248
BBD3A705
BD485E66
BC3A57AB
BCB7D2D2
BC2F48F3
3C3B1584
BD0E1A02
3CC4167E
BBF943C0
BC66E4E0
BC5B6116
BC282756
BC15094F
3D10DB7C
BD1B22A6
3C27F70C
3B1D5920
BD021B6F
BD3257C9
3B11CCF9
3D086B8A
BD6A7887
BD3D0C19
BC1C2605
3CE3E9A1
3CCAFF03
BBDD78F6
BB8405BA
BD18499E
3D0F3A85
3D642116
BD4D7B33
3D7E8F5A
BD3F8E78
BD89C236
BD43D051
3C974C2F
BD59003E
3BDD78F8
BC21E978
BD4E248C
3C6493E4
3D39FC66
BD6F4EBE
3D84F80A
3BDB8269
BC7BD3E6
3B168B5A
BA877959
BCAEBB82
3C1EE9E3
BC9D5C66
BD5F0CF9
3CA50901
3CBA043F
3CB5ACF6
BC0A5648
3C89DCCC
3B158E07
BD839858
BC6E3F86
3D177E73
BC537F4D
BD904EFC
BB9551A7
3D4FFD07
BD6EF2DF
3CCC5FB5
3CF24036
3D41396C
BC6CEA4B
3CC5CCCC
BD6247E5
BCE74506
BD285B35
3C4B35AD
3CE936BF
3D081CBB
BD166F67
BD21FACB
BCA8DEE7
BD831C91
3D55D1A5
BD610D1D
BCCCFA1F
3D039395
3BFCC3E8
3D29606D
BD818741
BD395449
BC9065D0
3D163F75
3D52FCE4
BD0FC314
BC1D4D58
3D3A1AD6
BD7CAACD
BB8CA8DE
BCFB4254
BD007B49
BD5493E4
BC282765
BAD32C5F
BD28EE82
BD05464C
3D3F5E12
BCD22C30
BCE1831D
BD35EAEC
3D038C08
BA0B0540
BD38939B
3D328569
BC2D1E41
BD7798CF
BCB48684
3D38E312
BAE30C5B
BD3DF33C
BD466D9D
3D300634
3A03CC5B
3C90CD98
BCCD349E
3D462952
BD075BF1
BCA105D4
3CB091EA
3CDBF2D7
BCB1ED68
BCC075F7
3C687D05
BCC61966
BC00F8CD
BBE82A26
BD2EF81A
BCCBD893
BD2AC7AE
3D8797BB
3D0914C0
BD07626C
BCBF6A09
3944611F
3C2DDE61
BC747C0C
3CFEBEB6
3C8F88CD
3D356C7B
3C898EE5
3D6C9E25
3CF75EB2
3D30E269
BB2F2A3B
BD25CCA4
3D84B163
BD12B47B
3CF752EE
BCAE15EA
BD3A47BC
3D0EE88E
3CF6D659
3CD3FAEE
BD986857
BCA3C67E
3D1E5B82
BCAB87D9
BC7C9152
3CFE63A3
3CC0D2DC
BD5882B8
BD111861
BA119686
BD178426
BD4F39CD
BCDE4318
BC23FA79
BD84D49D
3CEF202A
3DA88967
3CEA2E24
3C95DF8C
BBFFC4C4
3CB55EB1
3D164FB0
3D94B43F
BD63413A
3D046CE1
3C073ADA
3D122FD1
3D23846C
BCB739F9
3D56CA53
3CE6CA6A
BD2B481B
3A833F10
BCE4F803
BCCFD653
3CD24E14
BD49A1F5
3D5A7500
BC94E1F3
BD7B1F47
3B525A6A
BBC87E4E
3D44A141
BC1A3957
BBE912C8
BC0AB3D3
3C449669
BCA1254E
3C8F3E72
3C5F550C
BBA61760
BBC258D7
3D60EB95
3C38A688
BCC2F787
BC9E8BCF
BD134B31
BCB72F7A
BD024578
3CAE02A6
3CD44284
BD30585B
BBD253B4
3BF07CAD
3D478F15
BD498578
B90645C7
BC4BC415
BCFF3AA7
39DD464E
BCC4466F
3C97544D
BD45635D
3D3AF147
3D08F73F
3D43A19B
3B3F5499
3C78FE03
BD003AF0
BD37CE3B
3C504491
BA102852
BD2F457E
3D1B21B0
BD513B16
BD494995
BA43D355
BD0194E7
BD00AF1F
BBD26FFE
3D172B0E
BD2DB31A
BCDB08DB
BD6BD2B0
BD299F59
BD2D7A95
3A9CD287
BC5B94FE
3C26ACB5
BD0E96AD
3D4CC1B9
3CD00D2C
BD2749E9
BBBFF93F
BCC7CF80
3C48AAA9
BCDA9A8E
BCE89E4C
BD2737D4
BCEBA762
BA33231A
BD03A915
BD2B43CA
3C320745
BCFC85AD
3CF96993
BD6EF8FE
BD5BA326
B9C03434
3CDF4C9B
BC527B68
BD3F897E
3D12E9BB
3CBC06F2
BCB67E76
3D54017B
3D7A5CFF
3CD68E03
3D142E2F
3CA3DDDB
3C97C398
BCAFB593
3C8B3831
BD16A4D6
BC8194D5
BD4ECB52
BCE1B7FA
BD317D31
3D3D04D3
BD564843
3D252534
3CA28ABB
3C63D22B
BCAA8455
3D2AD25C
3D292A70
3D48DB57
BC0A2399
3C7BAAF7
3CD05A90
3B95977A
B9B3CEAE
3C5D5A7C
3D370019
BBE064E6
3D5A0915
BCD63E24
BCFDA656
BC528B98
BB4C4C5D
3B171666
BC8F8CBF
3D43E14D
3D31A5C9
3CEF0317
3C21D4D9
3CE2068C
BD2AB188
BDA038B8
3CC35374
BCB5A414
BD149F14
3CC11540
3D2D71D3
3D399461
BD7B1608
BD3B0F7A
3D047F34
BD9D1442
BD43E561
3D25DC85
BCFCD466
3C96FB97
3D25B102
BCF15DEF
3B74D517
3D543993
BD3992F7
BD020C01
3C5BD994
BBC187A4
3D498F5B
BB520CA9
BCF63711
3D47DF18
3C45FE0B
3D44A97B
BC8F3ADC
3D5AED36
BD0CA0A4
3D2B59AD
3D1CE66F
3C13617D
3CA39862
BD17C55A
394D4A04
3CD5450E
BB383ED2
BD729901
BD214775
BD4213CA
3B80FEC7
BD71E6CE
BC79AE55
BD4427E2
BC8FA027
BCFB6DC5
BCA2CC15
3D0E82BF
3D3C7341
BC71C1C3
3CF51C2D
3D481CA7
BCE773A2
3CF1F7E1
3C17C24D
BB878458
3D013318
3C9B3F0C
BCF041CB
3B2DB58A
3D114DAB
3A8E940B
3CB7DC93
3D04296B
BD2CA2AC
BCB73417
BD7F7EDD
BD38ADD7
3D07E2E1
BC3219F7
BCB0AE80
BD71490C
BD052D3D
3D28DF70
3BA21513
BB8FC926
3BF911D3
3CA51AC2
3CFE06D9
3D5C510A
3D212B93
3CE7EB3B
3D2A1D3D
BD30229F
BCEC0CDE
BCD953EE
3BB04C0F
3D149DB2
BCA5DAF0
BD559CA2
3CC8D656
BCD51162
BD088190
BC75B2DD
BC1EFDA2
BBC7D270
3D39C171
BCA56009
BD30FEA0
3D34030B
BC96C238
BCD0AA28
3BC10B2A
3CC2E06C
BD5E6D5E
3D156CAA
3C9486F0
BD460F60
BC6FF9E0
BCB6A98B
BCEF7BB9
3D3FF3E7
BD4ACDA1
3D029658
3D2F2FD4
3D140933
BCB48E6E
3D196BEC
3D501D42
BCB8A8E8
3C682719
BD260357
3D308F22
3CA5D807
3CB095F8
BD17F978
BC939F80
3CD46769
3D36ED33
3C82EC99
BCE527AC
BBEE39C2
3B0C399E
3C89C58A
BD23EDE3
3C221130
3D5247A9
3D87D22F
3CB180F7
BD49A65D
BA3210A3
BD89A4CD
BCF944E5
3B114E24
BC260BD2
3D25FE6C
3D5241D2
3B88A7F0
BD30EA1A
3CD52045
3B871DB4
BCEEBB62
BCA974D5
3CA89C1D
BBC5C8A8
BD1CA0CF
BD3CB111
BD53D3F4
3C383C87
BD14CBCF
3B6F3F49
B9FCF0F2
BD6A1934
BD8339C5
3C4CB277
BCF470BC
3BB24DD3
3D4137AA
BC9F3113
3BEEC120
BD097392
BD5636CD
3D1C2BA6
BD27B81B
3C3DBD68
BCCFAAEF
3CDDE42F
3CB49F9C
BC9909CF
3D479F71
3CBEC9E9
BD821ACF
3D2FE3B3
BCA2BDD9
3D2864A5
3B8D2C0E
3D44D42E
3D30FCF7
BD0C7208
3BB8248C
39EEC54B
BCD0F24F
BBCD5C51
3D01F099
BD489689
3C8CFB4E
3C813FE7
BBD18126
3D3614F6
3D692883
3D0C879C
BCCABB2C
BCAC551F
3BB7768A
3D52E608
BC8E6045
3D05D62D
BBBFE87C
BD406A94
3C1F1C0C
BC28B7FA
BD5A82C5
BCA4792E
3C49000B
BC533D5D
3C73055B
3BD9D808
3D7F0661
BD1DFB69
BC154BC7
3D464993
BCD90BFB
BD65E8D1
BCFA8F02
3D45C4C5
BD8BC97F
BD56E20A
3D293F2A
3D1F2F5E
3D787694
3D15A9B2
3C272DA2
BD1077CA
BCBF6C93
BCC9605F
BC696082
3D3B8EB8
BBC09563
3D0C2E6A
3C7509AD
BD03E40B
3BD91171
BA3690D0
3D4B7397
BCD6B64A
BD1D0860
3D3D16F6
3C80A233
3B6CB3B3
BC836BEE
BD192073
3D605247
BCE6AC0F
3D5B3DED
BD93F8D6
BC349C40
3D2400DD
3D592E41
BCECB9B2
3C9A1E50
BD2AD200
BCCB252F
BCDE5895
3BBD3EFE
BD4D9426
BCF40A3B
BC761551
BD16459E
BD0E01DA
3D5C9C4E
3D0C9CB4
BD50CC6E
3B0EFDE4
BD3F6BF5
BD14981C
3D38135C
BD28CB97
BC212E79
BD01554E
BCBDE325
BC39349C
BD85BD0A
BC0C02CE
3D421E18
BD38532F
3D22B9DC
BD7D5595
BCBFDB09
BD21A755
BD4CFB9B
3D013A15
BD46DDDC
3D1A7A18
BD461444
BD29ACF8
3D14D140
3D387268
BCC23966
3D206F03
BC951719
3D13DC4F
BD19B40B
BD838C4A
3D061BEB
3B9913DA
BC67AB05
BD568FC8
BC4178E5
BB31F21C
BCF53FC5
BCCDF1ED
BD0E76EC
BD68049F
BB12E5D6
BCC9B8FD
3D1B25BB
BC5D3A31
3D5D5CC1
3D407E66
BD320487
3B8D0D02
3BC7FA3C
BC88F2B6
3BCD7A92
3D16E84F
3D1CCE67
BCCD41C5
3C25568A
BC5B42D4
3CA5551E
BD611C0D
3D39BB74
3D3AA3C4
BC29E990
BBF75D5D
3D0FE102
3D3A6244
BD34B422
BD14E3CE
BD3501FA
BC964CCC
3D079362
3CEF4B13
BD490C0A
3D0CFE6B
3C3C215C
3D6314BD
BD562116
3D1D6EC4
3C2F2AE8
BCC99DF4
3CD2B9FF
BCA89FDB
BCF6A04F
3CFE1461
3D5AF51E
3CEA938F
3D0BC35C
3D0F5EC8
3CF840DC
BCA2BF96
BC65BDE8
BC7B32D8
3C6ADC61
BD064797
BD062558
BCA74EF0
3D65BEBC
BC7FFF44
BD185222
BCDE34E3
3CD28505
BD158C17
BCD574B5
3D42F131
BD6B83C1
BD1AAE9E
BD2598BD
BD441610
BCB83130
3CBAB32D
BD2E5D26
3C599F12
BD552FA0
BD46EFD6
BD3CEE07
BD0084BE
3C5CA804
3BE10F74
BD2BB805
3CBBFCF0
BC2B2DB0
3CA58FD0
3BC7305B
3D4469D7
3D66268B
BD5476CD
BD379C8A
3CF4B171
3B7FF69A
BC8BEE62
3DA1EDC3
3D0C466A
3D7595DC
3C45F870
BD1C0D8C
B868991E
3D0653C6
3ACBDCF4
BAB69562
3C80BFF3
39E875C2
BC2D6DAE
3D6E3775
3D29C945
3AE7A22A
BD0C7A5E
3CBA0925
BD5AB64A
BD5F335D
3D4FC541
3A59D394
BD728945
3C1ED1C3
3D25E7C1
BC52EAE1
BC91C258
3BC44CD6
3D344E52
BC108CFE
BC659C1D
3CA4A2F0
BC9DA1A9
3D275AD1
3CCEE028
3D27792E
3AC5F6FA
3CB1D67E
BD134B48
3B8EF807
39AC08D6
3CAC7AAA
3C1AB85A
3C7F3FAB
3C920EE1
BCDFA5A4
BD64CD5F
3D32AE32
3C815C94
3D4DBD65
BC8D01B2
BD36DD28
BC9D7EB6
3D2B6BD9
3CCF19A9
39A98BB1
3D0254C7
BD21B9EC
BD230534
BC37BFE2
BC15F7E2
BCBBC998
3C9CBED9
3CDDE888
3D87A572
3D57632B
3D518186
3D1B69E2
3D3E4882
3D0F8E7D
BD5598BC
3D0FB524
3A1E02E1
BD8D6AF5
3D075CB5
BD415771
BB6DF1EE
BC896831
3BBA7257
3CFE02B7
3C9DBEF7
3D1DA5B3
BD522BB7
BD7E8DB6
BC5F2904
3CCC293A
BD82DBC6
3A4C03CD
BD599388
3CF5BC2A
BD5058AD
3D2E2D10
3B2B746F
BD4B58C3
BB9384C2
3D3A3470
3D4BCFF9
3C1A5533
BC85A0B4
3D0467B1
BD4FB72D
BCB7DCEE
3C992B62
3CEE0B56
BD150DBF
3C4A3AB4
BD42262E
BC8BACD5
BD486140
BD75FA38
3C2E5659
BD69E6E0
3A528DEC
BD5C81E5
BD0CF9BE
3CB058DD
3C6F329A
BD5CA2C1
3D12BE66
3CC1882A
BCA4787C
3D7EC379
BD60BD02
BD3AA156
BD4B2538
3C9E4CA9
3D290859
BD660246
3C7130BC
3BA3C891
BD00E072
3D3C357A
BCDF316F
BD5648A3
3CE331B0
3D12E6A9
3D45FAAE
3D6E1F7E
BC641ED1
3D4181DE
3C8AA06E
3C53323C
BD5D780F
BD16FAC4
BCB45566
BD1D454B
BD181F8A
BBCB5616
BD416569
3AF28DAC
3D2F80BA
3CD08FA3
3D71F45A
3C01A6C1
BD20CFFC
3C53A158
3CABF800
BC78824F
3CA0C6F6
BD3EC587
3D18B5B1
3D6187F9
3D3E7CCB
39B41DA7
3C895F5B
BD3D0E10
BCF0EA43
BD03A1A4
3B315169
BCD291EE
BD42A83C
BD1EEA18
BC834D19
BD6DFF55
BD4FE8FF
3D045700
3D3874F1
3CE35830
3C4EBB4A
BD22135F
3D542AAD
3C7DEF98
3CD13806
BD31051D
3CB4F5BE
3C99F099
3D0956DE
BD2A9644
3C86FAAC
3CA9EEEC
3D41EEFB
BD2AAAE1
BBE210B9
3D50B8E4
BD01E483
3CA71C82
BD2EE4EF
BC0135E6
3D372F5C
BD27F0D9
BD6F0CED
BD60B645
BD04A18D
BBA3D1E5
3CE5B831
3D891063
BD78F0F8
BD243A07
BBCD81FD
BD2E2656
3CD4251F
3D3936AC
BC1A1A74
BC2A2D3E
3B8DB2A0
BC95D027
3D4C1F95
BD6F8433
BBDF04B5
3C167735
3B240B7F
3D2709E1
BBD7FC09
BD77C3F2
BC26088D
BC7DCED2
BCE2E261
BD8792EE
3C45DF59
BB085099
3C800F8D
3C31AF9C
3D194D6E
3D1E2CC2
BCCD5561
3D581815
3D221DB7
BC0F07DC
3D03CCC2
BB05ED4B
BD0341A3
3C1DC92F
BCA7FE1A
BD87C969
3B3BA63C
BD2AC04D
3A4D9876
BD86F8E9
39D07D86
3BAC0AAD
3B4FE813
3CF2095D
BB2993CC
3D18BB56
3BFEEFC8
3CE9AEC8
BC21632D
BD69E839
BD2047A4
BD4F189E
BCB010D1
3D0E6A13
BCC01385
BD290E64
BBC912C7
3C9848F3
BC3135B9
3D0E4BF6
3CE108A8
3C9B05E0
BC8629F5
3BC562A5
3C8B1B5D
BC428363
BCA028A5
3B83EC8A
BA27155A
BA6CB63C
BD580B0F
BD1C55E1
3B42BD3F
BB549400
BCE7081D
BCBD0F47
3CF29F46
BD61CB73
BC8C261D
BCC16CC7
3CB0A7AC
BC9FEBCE
3C9C215D
B9645135
3C024C05
BB266BC1
3D4BCA7B
3CED587B
BC8248C6
BD967AC0
BCDB6C1F
3B8BEB9F
BCE9AA94
BBCB5BEA
3D9FA436
3D539874
BD710A15
3CE1AC5F
3B1729A3
BD1354D8
3D4B0AD1
BD60AF43
BC23AC09
BD896DD5
BC9BFB58
3CFD2821
3CAB6B7E
3CFF4201
BC80002F
3D2DCB77
B9766778
BC64E719
3B46C569
3D1DE22A
3CE82128
BBE6BB20
3C62094C
BCB57F81
BC0B35A4
3C68C0CD
BB8CF326
BD650FDD
3B037A8D
BD5F7434
3D751A1D
3C8D516C
3D05BE57
3CD619AC
BC3A7409
BD6AB955
3B87A01A
BD3C09D1
BD1F22EF
3BA3B247
BD38E997
3D13E7C7
BCFBF177
3B96587B
3D260D9F
BDB4D169
BC1CF52A
BD6A9F8C
BBF7C87E
3D385104
BD3F72CF
3B1AFB65
3D29FD31
3D0E0818
BD271579
3D50C358
3CCF8B42
BD321E18
BD0CFE53
3D8B1960
3CDCAE70
BA829FA2
3D19ECA0
3C604EC6
BCE79F41
BD0912DA
BD8022BC
3D0E590B
3C4EA0C2
BD0E5B13
3C091D42
BD899D80
BD0868A9
BC99CA2B
BCD1414F
BD646071
BD07B0B6
3D3A3B5B
BD6E0FE1
3C47AEE8
3CE35E6F
3D5F786E
BD23B808
BC337215
3D3FD84B
3C8B2513
3C724CD7
3BE410DD
3D34AE84
BD8608C0
BC738B22
3C22A08E
BCEB8E50
3CA63799
BCE45CDC
3D4F03C8
BD2E5510
BD11BE91
3C6A2F5F
BD50A081
BCE137AF
3CA88D4C
3D0869B4
BC7AC298
3D192C61
BCBDDB54
BD31D912
BD1CEF6E
3C49A64D
BD6BE3A0
BD0D4F09
BD4723FF
3C2EB8F6
3C3D5215
3C2AD8F1
BD24093A
3C69F619
3D718BAB
3D2CFFB2
BC7C5CE1
BC0AB5DD
3C871536
3D03E747
3C8463A3
3C977A4B
BC3AF3FF
3D00D737
3C2A8B96
3D0BA4A1
3D137D49
BD178049
BD281BB6
BCA3B831
BD65A92F
BBAE2BDF
3B561FE5
BD5974E4
3D25EC9D
BD53010F
3D198D2F
3D7ACB79
3D60DCB1
3D785AC8
BD2D5E40
3C4A7956
3D506CB7
BD00EF7B
3D64E081
3C274DB1
BCA7E52E
BCA47C33
BD248528
BD1FFDE1
BD58A9C0
3C6239ED
3D297D1C
BAE4DA7F
3D7B78FE
3D440A2D
BD265F22
3D0801F7
BD3F52A5
BD55BA1D
3C1DD5BE
3D038237
3C8E05E4
3C102998
3D43544D
BCE78670
3D20CD8D
3D24FDA6
3CB47D09
BCCB8007
3C9D0DA8
3C8E9E77
BC95116B
3C9753DB
BD2E954E
BC20686B
3CA742FD
BD78EF62
3D09F7D0
3A3A313C
BD46710E
3CD31AD6
BCD1857A
3D12F139
BD435581
BD052178
3D126EC2
3C6867D4
BD1F20A4
3C68D11C
3D04D40D
BD2A4C60
3C05F435
BD224472
3D3B5802
BD1E4226
BCF0F998
BCCFC4F2
3BE60366
3C9FA41F
3C73F58A
3D71B0A7
3CB20F21
BD60333E
3D335094
BB8867CB
3C8C2FE8
BD2D2610
3BF154E3
BD22352E
3C499F2A
BCEFF2AF
BC82BC54
BD1CD984
BD25D737
BD86E3F4
BD234B89
BB9E8180
3D122C83
BAC71900
3CEEBC3C
3D170F27
3D273BFF
BD3A8F08
3C963055
BD36A7DC
BD359E10
3D223A2D
BC511F6B
3CC1547E
3D0EAB02
3CA44D3C
BD2B2701
BC38B46A
BCD60537
BD22D7EA
3D8EB183
BA8867E9
3D22670B
3C9E3B55
BCD01730
3D2FC243
3D9A82D5
3D81DAB8
3CFA928A
3C4101EA
3D5FF763
3D7AF1FC
3BDB6138
BBF53B31
3C4B4E24
BCD73603
BD2870E5
3BB9892B
3C17598D
BD231A65
BC15DAB2
3CC9468D
BB73CC39
3C04DB8D
3C391F1F
BCB171A8
3D0DF9A9
BCABF3FA
BD18C680
BD3F9D2C
BCE282B1
3C6DEFE2
3D60628E
3CFB965C
3D2D007B
39422D69
3C2D9DA5
3D18C579
3ACBF377
3C9347DE
BD6547BE
BC761AB7
3D4BC680
BCF1B32E
BD320707
BD75DE68
BD05B3F1
3D164EA5
BC44B2FF
BD5F9B82
BC78D044
3D12FFBD
BD92B1FC
BC95C4FC
BD288AA7
3CA94230
3D2302EB
BD001BCA
BD81CC52
BCFFD87A
BD0D2B29
3D209308
3D66E34B
3D2715E3
BD1537AD
BCBEF3C8
BC8575F3
BC9CF767
BC989568
BC3CF763
3D3D37DB
BC4D86CB
BC8C603C
3D201863
3D1B3571
3D22E083
BC630D2F
BAF8E6EC
BD29A221
BCF12B19
3D1B484F
BD4D5369
BC6825E2
3CD6DBFB
BCD9BF69
BD283A3B
3CAFD9D7
BD166F25
3BB0F28B
3D3438A4
BD812C0A
BD6B45C0
3CA836D8
3CD4B0DD
3DA0D27A
3BDD0CD4
3D277BFF
3D164302
3BE67121
3C431D99
3D321D27
3D809CC0
BD20EF37
BC870FD9
3C974321
BC88D1AA
BC24FDE4
3D19A1C6
3D67CA37
3BD04594
3D548531
3D32CAB1
3D252B5F
BCFCF3BE
BD01D266
3D43F7AF
3B95584D
BD3C5855
BCEA23B6
3CBA420A
BD381E90
3CB03FA0
BCF820E1
BD6B49B4
BD166713
BC170F39
3D438644
3C2CF7A3
BD1AF076
BD453C2A
3CD1D044
BC430AA6
3D3134F1
3A039C23
BD038ECF
3CF008F7
BB2A8D46
BD3F090E
3C267CDA
3D6B7C9E
3BDB3B70
3CE396B2
3D843601
BCED04FB
BD70B9D6
3CDFC085
BC11A231
3CF89985
BC3C8117
3B888C72
3D3985AE
3D733207
BD33156A
BCB3748B
BCC765C9
3D691DFC
BCA89D39
3D1325A0
BD47546B
BC8D98E5
BCBE3AE4
3D0D883D
3C61E90C
BD7A10E8
3CE643F7
BD863FFA
3BFD1DC6
3CECD270
BD1ECFBE
3D18E646
3CAC0A72
BD21C9DD
BD8BEA29
3D4871ED
BD330CB7
3D079AE2
3D2E10AF
BD11A091
3D62D2D6
BC68B49C
BD715779
3D109408
BD0D8A4C
BD410A1E
BC32C891
BC96CA93
3CBF3E9F
BD1BBAE2
BC33A56B
BD4278B4
3C0AC485
3AD6CECB
3CA63DA7
3C2A30F4
3D36AF27
BCB50DD1
BCA121AE
3C9D8642
BCD3B4FE
3D53EBCF
BC39F569
BBC1D688
3D2F54D1
BD5899D4
BD2E3099
3D5D6384
3CEB64F1
3CC1614C
BD5E9668
BC82E5AA
3D6D9CF5
3CB05FFB
BCA1A50F
BB9B14E5
BD8BBC8C
BD64EA28
3D79545B
3D732E6A
BAFB7C17
3CAB5FCF
BC2D2898
3CD5B642
BC18C455
3BC2A953
3D103053
3C2E3EB5
3CDBE0F1
3D03560A
3D0EE7B5
3C7DC58D
BCA44197
BC8FF9D9
BBE52340
3D0DC2E8
BD60DF73
3D2297C9
3CEB8E04
3D18AA17
BD4CE9DD
B9B214BD
BD438D23
BCF340AC
3C292B89
BCB6FBD2
3D76F139
3D427C87
3D3D7F71
3D3DE71F
3D57EDB6
BC8BC7CA
3C5BE745
BCBB97C8
BC42A582
BD22A5EE
BCF7CCC6
3D46025E
BD052E62
BD0CA8B8
BD739E73
3D610BA3
BCAF53D5
BB2F00BE
3D872B9F
3D6D3A94
3BF4F62F
3CF0F895
BCEC214F
BD11EEC7
BAC0F330
BD0C82F7
BD4FAFCF
BCBAC417
BD1B10F0
3A5176F3
BD300C82
BD664570
3C9CE509
3CCB8766
3D4B1480
3C328ABF
BC1ED0BB
3B5A4A8A
BCB0C5E8
BD169E58
3D280473
3D7F8753
3D100736
3BE5AD6C
BCA98175
3D36AB94
3D901DFB
BD6AF0A6
3C483999
3C7E6CE6
BC9FC59C
BD0364BA
3D25CFF7
3C27AAC3
BD0653B2
BCD0938F
3D0E4EF9
3CF68536
BD0F4AAF
3CD954F3
BD6BCD3A
3CC1FF12
3C0E1149
BCFF2584
3CA0B1F0
3C73CCF7
BAA0C0BF
3C8811A7
BD02CB3D
3CED71EB
BCDCFD85
3D226A32
BD32C7DD
3D3DB35E
3D3AE2ED
3D45B210
BD608628
BC45527D
3D78FB88
3C7E5611
3CCD85B6
BCD1AA5F
BC44B1EC
BD2FD430
BD45F509
3C2F2630
3B93B774
BD53E157
BC5879D0
BC2BE971
BB3C3CAD
BC16A0EA
BD99BC6B
3C919F1F
3D2A97B7
3C96C59D
3CDF9F16
BD3CC122
BC96A437
3D2DD6B4
BD294BC3
BD2A977B
BD379CEB
3D81BE33
3D5A19FF
3D067E57
BD18D744
3CDF2B9E
3D295EE0
BD32A2E2
BD2E3742
3C891E35
3D4BD923
3C44CFC8
3D17C50F
BD543132
BD6D1A8A
3D4C0943
BBC93D4A
BCF63032
BCAF9006
3D59E7B3
3D4128A1
BD6DA3A5
38109152
3CF2D529
BBDA8E8F
3D5E5145
BA6A849A
3D659CDC
3D29C762
BD00FBA9
3BA41B5B
3D727D54
3D51306A
3B2F3930
3D4949D2
3D37EA60
BB66DA49
BCED1B84
3DB1CA35
3D3DDB11
3D5D4CD2
BBFBA764
3B3F95FB
BD770D75
BD1E7B7A
3D2777C3
BCE45E4E
3CD027A6
3D2CABF7
BCB81360
BAE604F0
3C292756
BCC339B8
3C5606A3
BD166746
BD1D8876
BA818D6A
BD1AF760
3CAC232E
3D38D3F0
3BD4AD5E
3C6A6AE1
BD2C9228
BD5A35BD
3C99D424
BD0F8947
3C60AC1C
BC581568
3C8706FC
3CF59762
BB9EEF94
3D203A4F
BB97A541
BA35D103
BCE804B1
3AB7E9E8
BD630C96
BB8E9810
BCFB89F0
3D53E9DB
3D4B60FC
BC5EB199
3C587CFD
BD4E583D
3C190D19
3D17AC0E
BCC9C946
3C3FE92D
BD248242
BCA27AE0
BD59B209
BC8C61A5
BCC834B8
3CE603B1
BD5D6923
BD1A39E5
BA3845C0
3D1B21BA
3D634165
BC062CED
BD9307F5
3D59AA21
BC9A8BD4
BCF346E1
3D779D92
3CE66C8B
3B8A0A75
3D0C974C
3D481E24
BC5617B3
BD39F1C1
3CD8905C
3D20CDEA
3D171A8D
BCCEC5DA
BD74B64A
BBA415BE
3D58B664
BC6EE1CF
BD700785
BD20692F
BD5559DD
3D1174AE
3D1C676D
3C6E59F6
3C4EBB41
BD496E15
BD7CA322
3BF65825
3C4E7795
BD666599
3D24F9B7
BCC68AE8
3D3CA867
3CC7B249
BA42B825
3BD5F32F
BD44DED4
3C7F9B5F
3D85E533
BCB88812
3D3E1374
3D068155
3D552460
BCB4E8B8
3C785ACB
3D1EE9ED
BC2191AA
BBCE2A6C
3CCBDA74
3C8F7AFD
3D124E07
3CBF4071
3BADC09A
3C510A90
3CDBAD08
BCE1916C
3CC355B6
3D66C014
BCDB4DE1
3D2C8AB0
3D0D6C74
BD5416FD
3D6F769A
BC70F072
3D2436D4
3C05E4FF
BD0DECD6
BD2D886C
BCD83E41
BC940C1F
3D5CFCB7
BC902161
BCE56571
3CA4E39D
3CCD55DB
BC244B12
BC36806B
BC50AE9E
BD3BF2E2
3CCC021F
BD2AFD43
3D29DF5C
3D51EFEC
3C61F2D7
BCDFE2C2
BD0521CB
3D3A25F9
3D28D0DC
3D03DBEC
3B9BD219
BD5563F4
BCCD3697
3CD475CF
BB168DC5
3D46309A
BD05A20B
BD644D84
3CC45EBB
3CCC7FC3
3D63A918
BD04ABDC
BD1401B9
BD5FE669
3CBA00C7
3D2CB4EA
BC9C335A
3D63B736
3CA985DC
3D3E9A3D
BBA28917
BD6FDE2E
3CB16E86
3D4722D1
3D2FD813
BC8768B2
3D8F757F
3BB0A1AC
BB244FE9
BD6FB94F
3BD48FB1
3D6AC913
3D34B0CD
3CDE9270
3B877D68
BD09210C
BD1A77E2
BD03770D
BD018290
BD2392D3
3BC28AC4
3CB056C8
BD22E182
3D6E2A38
BB8756C9
BCA59AEE
BD9574F4
BD0555C3
3D83C657
BD1826D9
BD81DB6C
3CDF94E8
3C4FA69A
3D3DCD03
3C82F859
BCD88C80
3D284038
BC3980CC
BC4E1B3C
BCD8934B
3D155922
BC80A8D4
BD36A1AB
3D237B6E
BD423AE1
BCC0C6D6
3D0C033A
3CE8DB16
3CD87D13
BD48C02B
3C418F0C
3BDC66B5
3D55F20C
BD1F3EA7
BCBB4950
BD386510
BC8A5613
3B1EF561
3CA6291D
3C32D641
BCC166D1
BD1EBFFF
BD57E288
3C3EE4BE
BD17B411
BD3F4373
3D22F40A
3C42EEF9
BD7EC964
BD137B14
BD8E17A6
BD49DDD9
BD2CB716
BB66E296
BC9B926D
3D83FA34
BD61A12B
3D1AB5EF
3D3ADD97
BCC4237D
3D4CBAB9
3B8DBEAF
BD6F4F66
3D3283D5
3C814398
BD8D4D04
BC3BEF0E
3D6BC8B2
3D33E759
3CBE4018
BD2A66F3
BD557BBC
BC8FF41F
3D5E1697
BD5B9FFB
3D0235E7
BCAC7F2D
BC072E45
3CB9C7C3
BD712CA0
3D3FCD28
3CB26F90
BCD33CF4
3D426EE5
BB6D43AA
3CF1C883
BD204A82
BD7136D6
3CE526A0
3CC303D2
3CCA90A9
BC9A212A
BC546A62
BCFF9A94
BD0C97DA
3B6B71CD
BD303AC4
BD1D7BA0
BD147A27
BC1272D4
3BA95E07
3CBF2B9E
BCA5BFD8
BD4135CD
BD2ECAA6
3D583AA0
BD74720C
3C51E6E8
BA9A6955
BB6C9C5C
3D1A47C5
3D38FC71
BD2A2C8F
BC44CBD4
3D2EF200
BB42DFE1
BBC49C96
BD37AFF3
3D05D3E9
3C25B0B1
BD4369EB
BD198AD4
BD254BBD
3D4E7734
3C54F361
3D43E2FF
3BDC3DE9
3C3684E6
BCC895BD
BC8E51A5
BD61A369
3C984586
BBE365B3
BD4AE258
3D2C10AA
BD5732C3
3BE666EE
BCFDB825
3D3427B3
BCF023FF
BC62555D
3CABA29D
BD0AE121
BD4F8DF2
3D08A164
BC7EF1C7
3D54AB72
BD0F28C9
BD6B7672
3D0C8E67
BD8952D2
3CD46177
3D061E7D
BD56620A
3D3C2437
3CA945CB
3C324409
3D1A4B5A
BCF3C4A4
BD7C13DA
BB90EF28
BC88B590
3D4E545E
BC806183
39BE88BC
3D2424A1
3CFEA501
3BB211BE
BCB4B6CE
3C84EFE3
BAE36F96
3D334545
BC40263D
3CF0B42E
BD4FA7BD
BC35F9DF
BD6093AC
BC805CC2
BB93CBBD
3CFEF6AA
3CA7656D
BC356FE4
BD5ADFE9
BCFF5EB1
3CFA63C7
BD669CBE
3D38E5CA
3B6DF962
3D06AD82
3C3739EA
3CA9D5E9
3D2070EF
BCE2162B
BCA4A11A
3D0BA04F
BCAA8AB1
BCAC8466
3CBAF07F
3C878EEC
3AD3DA8B
3D1CC688
3D7636A9
BB661B49
3C9586FE
BD0CF622
BD152C28
BC9864A2
3CA9A9EB
3D04AC4F
BC51E415
BCDE078E
3C93F6EE
BD21FB8F
3CBAC380
3AFCDD82
BCB66651
BCBB523B
3D2CDF20
3C3577B2
BCA3ACD1
3CE6C011
BCBA17FF
3D37ABC8
3D174B4D
3CC4B80F
BCA7E945
3BF72F19
3A7F0190
3C43F795
BD7DBAB7
3C88F4BB
BCE3C454
BCC9F5D8
3D19865E
3CC4C271
BBEB5544
3D4E2F0E
3D375C6B
BD4AA674
3C02C733
3CF90A9B
BD027938
BC5EC5A6
BD48B251
39E8E0E1
BD282FED
3D58C856
BCC73E86
3D850D5B
BC2E7A97
BD1608FA
BC6E1650
3D5970F8
3D84D907
3BEF133C
3BDA1C24
BD302845
3CDBBB04
3D4D821C
BD5EE9B0
BD17103D
3D0EEF1C
BBEADAF8
3C8AC217
3BBED198
3CE1E0BD
3D68E7B8
3D2457F6
BD29794E
3D5E6D48
3D0749B8
3CF66F64
BA7192BA
3C91663C
3CA9F81E
BCE49444
BBDC06EB
3C97640E
3D55AA22
BD8113F3
3C998D06
BD973421
3CF6504A
BCEAB3B8
3CCA23D8
BD37D476
3D515D9E
BCF653CC
3D55CFBE
3D65EF57
B89084FE
BD457FC6
BC809FFF
3D3CB265
BD3D1941
BD40BD45
3CE7F5A3
BD1F8292
3B8E64DA
BC6D2258
BB8DDDB5
3D6CB720
BC190E09
BD1E314E
3CE12E6B
3CAA4F33
BCAA3140
3D1C02AA
3D49614A
3CF38C02
3D57CB17
3D3C0004
3D6BC21B
BD35D2D1
BCEBEE0C
3D386612
3CFE5A45
BD1A1E6C
3C95A178
3D7146F7
BC44E6BE
BD3C2E8D
BC864B66
3CF525EB
3D830554
BD025DB5
3C8BD79F
BCD54B22
B7FEC467
BC816337
BCDD80E0
BD28E081
BB3ABF7D
BCE61796
BD3A48FF
3D2D838F
BB647672
3D48667A
38814082
BD68478D
3CEC5F74
BC5813AF
BC4E4D10
BD172F3E
3D6D09E2
3CA0ADBD
BD175C58
3D45BC91
3CEB3471
3B9336CD
BCAC3038
BC4AE336
3C10AD2F
BD39A75C
3D187E35
BA5F1459
BC72A1B8
BBA4902C
3D0807B6
3D63555E
BD4D0691
BC2FD1AE
3C9BC5A2
BCE670E4
BD6316EC
BD679DAD
3C8588CD
BC8DB912
BBE8C4D6
BD06D749
3BFC1193
3A897D66
BABC46B5
BD1B49E8
3D5D3456
BD12E1F9
BD624565
3D6F3EE0
BCBA5B3E
BC19E4C9
3D52CA37
3CAA8FA4
3AA5122A
3CC11DD4
3D5927D2
3C8097B8
BB9165F3
3CF1EA83
BD549220
3BFE001F
3CD2B454
BC95E107
BB4B7C2D
3D45C2F6
3D0FC580
3D27D892
3C47B2CE
BCEBB728
BC810C5E
BD270D14
3CB01B6A
BCA6041E
BCB2F399
BD05E7F4
BBF1C870
BD6C162D
BD6760ED
BC0BD340
BCC7F280
3D175F5F
3D5CDAB3
3D07D86F
BCB06DED
3D3A47D8
3D6ABCE9
3AF577C9
BD4525F1
BBA8A207
BD116784
3D74A8A2
BC3FC069
BD5236AC
3BAA05D5
3D36953A
3D81265D
3D114F97
BCF32666
3CB6D10E
3D6026B1
3CD7CA68
3C55A1CD
BD05EEA3
BCA08C98
BC9218E6
BCD94737
3CE8812F
3CD8B37E
3CB40700
BD64865C
BD5302B4
3CF9D178
3D120008
3D27A1BB
BD25E248
3C60E71B
BD4CBA25
3D4BD426
3D520CCD
3C0BD098
BCB6E4F0
BCA489EC
3D3FE105
BCE734A4
BCEA9660
BD702BAD
BD3A253C
BCF4D63D
3D4281BD
BD708A26
3AFB1546
396070D8
BD02AA81
BB69BBC1
BD314652
3D27CB07
3CD516EC
BCCCBFE7
BCAC4395
BD5DC782
BCCB34EB
3D23EB11
BCD474D0
3CEFAD8E
BD3CB1DC
BBA1D17F
BCF46124
3CCC4439
BC3687E7
BCCE7410
BC9571A3
3D3CF138
3C8764E1
3D0CBE10
3D135AEE
BCAD50E7
3D629895
3CCEE94E
3B89BB65
3CE7045D
BC23DAF9
BD14AAA1
BD2852BC
3D0D3BAC
BD1596E7
BC53927C
3C88B3D8
BCF3C994
BD728BCF
BD3F05F3
3C9EA2C7
BCF6CB15
BBC77D50
3A3EC06F
BC1A0C1B
BCA791E0
3D7828E9
3C9C94B2
3D367850
3D1881A5
3BB710AA
3C338F1B
3BAA8B0B
BCE1009C
BD1100E3
3CB1C113
BD237813
BC52D2F0
3D3D7CE6
BBDE7981
3D2CA5E7
3CF59F4B
3D40F362
BD16081E
BC5A5BBF
BC4F42ED
3D170FCB
3D55E840
BC66628F
BC583689
BD5B2EED
BCC6E263
3B0988EB
3D3C7505
3C0ECF3D
BD013C76
BC02182D
BD0A9448
BD674169
3D555ED7
3CE0FC64
BBD778A1
3D00C43B
BD15E7E4
3CD93344
3D697975
BCAED8F8
BCA28AE6
BD384402
BCD18553
BCC6F12A
BC53A883
BCC1D90F
BCF732B4
BC08939F
BD20F447
3CF753F7
BCAA87A2
3CDD6E96
BC2484AE
BC1B3A18
BC0C4493
3D642C40
3A87181C
3D3413F8
BC6F1A35
3C2E0AA3
3C9F8A98
BD2E071A
BCD26E92
BD059B19
39EEDA09
BC3C9137
BC5E37DC
BD55201E
3C8FB096
BD3C55DC
BAAC94BA
3C1D1F15
BD4EF278
BCDD4EC7
3CE7C641
BBFE9778
BADC43E8
3CA0C106
3D5CEC7A
3D3B4CD2
3C0736C2
3D08DB4C
3ADC1F20
3BDDB427
3D169473
3D4DB12E
BC7CBC36
3CA125CC
3A78A89D
BCCE89ED
BD3E3E9C
BCA45D9C
3D4BF51F
3CA9ACB2
BBBC626A
BB020303
3D31559B
3D51D45D
BD73F401
BD2AB701
3D59222E
BCAE5295
BC04F1E1
3D0DF9E5
3D0C4E29
BD022B0C
BD26EFF4
3C3CE3C0
3C864AF3
3C9A0091
BD57F870
BA53CDF3
3C595B1F
3C878735
3D5F8576
BC8A95D1
BC33B61A
3D0D6D85
3C64F3AF
3D62B322
BB5D600E
3C756104
BD1B195D
3C066021
3C43CD10
3D0F48D3
3D8604D0
BD582805
BB1EA4CB
BB5D93C0
BD05C68C
3D0C34F6
3BA4A063
3D55FD0D
3C8912AD
BD663B59
B97C535E
3BF5E854
BD67E02A
BCF38FE8
3D75CB97
3D57B99F
3C9526D7
3C30F32B
3C4E8B08
3B24ACE5
BD3DF4B5
3D4D00C5
3CB662B1
381FCED8
3D34A540
BD202A16
3D5069E9
BAE26022
BD72F96E
BD6FAD9E
3D15ADB3
3D4BE144
3D289CC5
3CC5FF4A
BCE29118
BB46B0FD
BCB4346F
BD4D3F3A
3CBB6874
3D21824C
3D836A01
3C25C0F4
BD197557
3BDB39EA
3C4CB3BE
BC6BCCA8
3D78EA1C
3B2420BB
BD1C9E4C
3D2177B5
3C84889F
BD485560
BCADF4EB
3D850703
3D6DE2D2
BD1E973B
BC6630E1
BCD7A2A9
3C1D8034
BC9D0765
3D2BAA85
BD84F69D
BD1A7EFA
3B834BA4
BD3B2413
BCD8A071
BCA54B46
BCD7B3BF
3C92D61C
BC68501A
BD581AFD
3D68094F
3CDFD13B
3D1E732A
3C8944A1
3CAF1E41
BC53D748
3C9EF4E5
3D2C3CC0
3C1A63F7
BD3CC827
3D39502A
BAD9B6ED
3C291D0E
BD3816C2
3D3A0A4D
BCFAC38B
3BE6B9AE
BBE5A066
3D265793
3CB9868A
BD385BCA
BD28BCC1
3CCE8A50
BD0A31A6
3B406E74
BCC74DA7
BBA06CC0
BD5D3DF1
3CC7A758
BD3BB05A
BD106C27
3D13AFBD
3CFE6B98
BC894811
BD4E3771
3C79B711
3CCA5EBF
BD45EC18
3AEF0F5F
3D63EB9C
BD0ED781
3CCC0F66
BA402E80
3C39487B
3C16CD38
BD75FD33
3D1CBC8A
BC7C86D1
3D184BCD
BC75AEC3
3D048EE8
3C080195
BC9316A5
BD046784
BC6B6B8C
BCE09F8F
3C347CA2
3D6AB26C
3CE91712
BC4EA52D
BA73E0F5
BD7949CF
BB9981DE
BD0F1977
BD578047
3C5EF64D
BCC8AC60
3C42D90D
BC116758
3D25C02B
3C49CA7C
3CC42F30
BD461BE0
3CE0091E
BD64BDCE
3D4D47A7
3D1F6128
3CE08947
3D4ADED0
3CD41F84
BCC5A8B7
BD64FE09
BD88A8A0
3C5C0C1A
3CFB7D56
BD03D709
BCE7EFF8
3D0D96CE
3D41557F
BD59CA49
BD52C2F7
BD45BA14
BBD3B9FF
BD2B5098
3D7B2074
3CB4D7B2
3D498700
BC77C822
BD0B279F
BD7A65E4
3D7AB0B2
BD21D974
3CD0AE9B
3C9FF878
3C29DA62
3CA7D691
3CF11F99
3CFE282A
3D06F7C3
3D2040AA
3D0ED5E7
BBB46132
3D536714
BCDE889F
3D3AEC7E
3C61E1D9
3D0E1ED7
BCB751F0
3D28E6AE
3C3FA6B4
3CFAAA73
3C84355C
BD84020F
3CC81994
BD4A069B
3C9A5FBC
BD0FDF88
BC763B62
BCAD8494
3C1970C2
3D278C30
BD26EA04
3CE70C5F
3D47871C
BD3B10BD
BCD93214
BCA7B0A8
BD11D0DA
3D616BE1
BD4A508B
BB905FC6
BB427627
BD142C24
3D6474AA
3CC080AF
BD64FB83
3D32AC1D
3D238357
3B35C1B4
BD3604E9
3CDCBD69
BD3F10CE
3D2E45B8
BBC94EF1
BCC1A97D
3D78E50C
3B466CC4
BD37027B
3D34A6C4
3C4D5013
3CE77F27
3D0CF63C
BC8EC34D
BD35825D
BD778098
3B2947D5
BD5510FC
3CA8758D
BCF806BF
BD38DADF
3B5DFD70
BD018CDB
3C882FF5
3D51F5B6
3CFF0B51
3C056213
BD89382C
3D70DA57
BD46C003
BBE64AF3
BD42C09E
3C0124AC
3CB651DA
3D55CA8E
BCCF42BC
3D1C69F8
3D0CD62B
BCC45CB0
BCB55A49
BCDFC56F
393FA212
3D641B1C
BD220F92
3C231244
BD322E05
3B8D7F91
3BCF2CB9
BD14C7E7
BD3F046D
39F522B9
BC466420
BBCC2002
BCF3813D
BC2D23E3
3CF5F532
BD602AEC
BD14873B
3CE3EDB1
BD6EC434
3D39F175
3D0C6CE5
3C85AFE7
3C41978A
3D3311E6
BD05D389
3C028742
BD48153E
3BC5FF99
BD0F1BDC
3C8DB78E
3D0EF778
3C723F88
3CB5944F
3D18D01F
3D311411
BD09AEB3
3D4AA7BD
3D0731EC
3D510849
3C68E892
BD4EF1FD
3C748AF5
BBFC29FE
3CA5470A
3CD21857
3D826190
3D11CE57
3D085367
BCD7B0CD
3D390BBE
3D167C82
BD3007BA
3CC7AC0C
3DB59F5E
BC9F7B15
3C8C162E
3C9E8BBA
BD20D6D8
3BECD341
BD0BBABC
3D4896A5
BBED5E59
BCD5E7C6
3C1852BB
BCB357FC
3CF2E873
3CD83D31
BD4E98BA
3D9F6430
3D381C4B
BD493B44
3C994BBE
3BAEA48F
BD03CF8A
3C808AD2
BD52B120
BC9476C7
BD28CDCB
3D2AB339
3C58E989
BD0E907D
3D59EDCB
BD4565A8
BD2F888D
3D5DFD5C
3D060092
BD10E8A7
3C750F29
3C408101
BCDFA39D
3D87976A
BCC0383D
3D86EA1E
BCB34433
BD00F36C
3CA96F23
BC773750
BD3DFB5B
BC82F5F7
BD0E35CB
3CD4CED1
3BFD1EAA
BD86AF4D
3D0E34E2
BBEE617B
BCDCC9A3
3D3E060A
BC613EF0
3CE943BC
BD14D3A5
BCC2EE34
BCAF453D
3CC19802
BD37E946
3D49504D
3D18BF4C
3D468EBD
3C916225
3D554786
B7330F06
3CAB2417
BCDB1F8E
BC6FD0CD
3D763490
3D511C0D
3D321FC3
3CB9678F
BC80FDE2
3D2F0146
BB4E0833
3C8E2DB3
BB65A2AE
BC321F14
BC9C5E70
BD65028F
BD245F86
3B5665EA
BBBA18AF
3D4C85F5
BD52A4B4
BD3E934A
3D1C405E
BC6778EF
3D3EEF7D
BD0B5965
BD212590
3D050C73
BD3AD3A6
3CC1FA4A
BA29ACFB
BCF28281
BD047A12
3CE3CB05
BD32AB47
3D33EAC9
BCD1F0B5
BD64DE89
3D178068
3D196ED4
3C8BF0D6
BC6CBF9D
3C1B5BCC
BC912A8E
BAF1E85D
3D1544E9
BD7AB224
3BAE35DB
3B81EC77
3D58D946
3C6ACEF4
BCE9136D
3CDAFC3A
3CE8D4A5
BCB0EAFD
3CF4D4B5
3D166541
3BFC039B
BBC783B0
3D38FB5B
3CE73EF3
3CAF3A3E
3D9EE3D6
BD38B4A3
BD2FF7C1
3BC644BE
3CE9C0E2
3D2F88E1
3CA2EF9E
BCA322AD
BC9E4009
BBECA23F
3CA9C86E
BB55DFA9
3D0495B7
BD38EA11
3C929E6F
3CBBEF31
BCE607B9
3C40C517
3D2FD51D
BD4B778E
BCFB1EED
3B3B72D9
3CC0D611
BCA8EEB1
BA2D45B1
BD019F47
3D482996
3C6B3DE4
3CFD1FC8
BD4CFB49
BD2C9E12
BD801C89
3D571B27
BBCDE86E
BAE0459E
3B665FB5
3D1FDF09
3CE65CBD
3D50DC3F
BD3F94DD
3D392C9B
3CC6119D
3C8A467E
3C8AE737
3D2A103F
3D83A457
3D6BC1CE
3D131B30
BAC2621F
3D04F8BB
BD2CAC39
3CD44487
3BB15BF5
3CC842F8
BA645DAC
BC62CED5
3CBFD78D
3D0CF057
BC29F44A
3D471E73
3C473BC0
3CC82B94
BD5B64A8
BC4B960B
BD4588CB
BCB69B77
3C86BB6C
BCD7132F
BD1725D1
BC40C635
3D3FF55C
BD4FEC30
3D2896E0
3D0C10A6
3BDBF309
BC6B4FD3
BD35A1AB
BC08B1A4
3D288E47
BC8108C8
BB289019
3CBEB083
3CB29ABE
3D4C9C0E
BC810364
BB339906
3BC5711A
BCC6FD37
3C65F6BE
3CE72372
BBF20C94
BC9DD87F
BC96D841
BCA386E6
BC53626A
BD0123A8
3D6F7FF9
3CCB96D5
3C03CB7F
38875504
BD8AD395
BD310137
3D84C5D5
BC7C3538
3CAB1366
3D86C4E2
BAB9154A
3D0C842D
3D66832B
BD80DCC2
3D3A097C
BD021C6A
BC270F00
BD5B7243
3D6CBDF5
3D5BC656
3C023DC2
BC8C0508
BBD5E928
3D0C7D85
BCFB6523
3CB84370
BD2F32FA
3B86A492
3C5744D9
BD4C3AA2
BCDCBAED
BD4B8ACB
3D30229E
3D6B0213
BACB00E1
3C89EBB3
3A3F278F
BC839842
3D2AEB62
3D5A6FBF
BCD6725D
3D64D610
3D1C00F2
BC359139
3CEF5C3B
BD7D1A09
BCB87FBE
BD812EE8
3C7D17C8
3D0796DF
BCBBAAE4
3D185DE2
3D84BA65
BD230BA9
39AB8D39
3D84D412
BD564EA2
BBA9D5F8
3C881EA2
3CF49A80
3D64C99C
3CBA2292
BBA06265
BD40AD9D
3CFE716A
BC2ADD1B
BCB48855
BD36C087
3D173021
BC76301C
3D1BC0E6
BB985B19
3D384C2C
BD822D07
BD280F69
BD29C94C
BCE1CDC9
BCF176F4
3D17D497
BD47BEA9
BC6B9940
BD140712
BD2C8019
BD40A9E7
3C131C2F
BCE7CD31
3D14D0DE
BD094C58
BBCFD06F
BD15D017
BCDE1425
BD0B547A
3D075DF9
3CD512BD
BD685F36
3B5CC22C
BC094FBF
3CC51B83
BA3969B2
BC094CC5
BD75204F
BD1A969A
3D15A442
3D295A33
3D70FFC7
3BB930C7
BC800D32
3D23C7D9
3C191699
BCA26AB3
BC476627
3CC6EA5D
BD20FF5F
BA28A6D1
BC39DF9B
BD193310
3D25CF14
3CC79075
3CDCA0F3
BD2B8EF9
3C38D945
BD4E3637
BD6511FA
3C3AF44C
BD6A941B
3C9DCF8F
BC7A41E7
BD56FEC1
BD22E8D1
3C45515A
BCF8ECBC
BD8CBADA
3A3F371A
BD248A5E
3D550E14
3BD8B18D
BCBF0450
BBF5B225
BD5215BD
BC92DDCF
BBD23610
3CD9A0E5
BC978006
BD1E862D
3D1C95F6
3D40811E
3CF39932
3BFF7E3A
3CA3B148
BC5B216A
3D0A7C6E
3D431851
BC21CC4D
3C4550CD
BCA13BB5
3D00928B
3D4B9E58
3C0F1D0F
BD57A831
3D77FE7D
BC5EC5D1
3C910A64
3D555EEE
3CD7013D
BC8FFA32
BD808A23
BD5A9524
3D471493
BCDD7525
3D1F2618
3D04E253
BD3334D1
3D00CC0F
3CD55795
3D4EA6E0
3D2EEBDC
BCA28AD9
3D3CAFF9
3C82BDB3
BB436B52
BC522EE2
3C9FEC8B
3C532099
3D1735B8
3C206CEC
3BB8E5E8
BCF57436
BCFB13E6
3CAF8CF5
3D57A351
3D3E429E
BC8D2ED7
BD35178A
3D5BDB6F
BC80466E
3D81F83D
3C0FB25E
BCC62BAF
BCDE2DF1
BC8B6FCB
BD075472
3D16ABFC
3C32C531
BCFBB05E
B9FB1C43
3D3307F9
3BA1BCD9
BD7EF81B
3D2753B8
BD026344
3C1FBBF8
3D144CB7
BD3BD44A
3D0DA826
3AA138A2
3B29FB7C
BD20BCCA
BD1AB3D5
BD2F0CEF
3D0602EF
BD283D9A
3D648712
3B98AACA
3D5D040F
3CF966BD
BCC67210
BD23EB9E
BCD555D6
BC48C788
BD27BF17
BD7A9043
BD02927B
3D5DE505
3D364236
BCE0C5A8
3D60A66C
3D5DA125
3BFF0624
3D5B5DA9
BBB5D627
3D4B9242
BC0F7FAF
BD47C632
BD4B4804
3AEE6AD9
3C2C0CBD
BB7D10BD
BCB4EE86
3D46EB87
3C569E87
BD298585
3CF5E9CF
BCAE6738
3C22701D
3D1008BA
3C95E5E0
BD64E57A
BD58C82E
BC487C3B
3CEE6220
3B2ABD09
BCCF91B7
BD3F6C78
BD47CEDA
3D513441
3D50F7FF
BD45B25D
BCE1A933
3D74D7A4
3BADE1CC
BC44E90F
3C7F9691
BD634E2B
3D42514E
3D6095A3
3D55F129
3C03BBE2
BC3D76A7
3CFC88E0
3C7BFCB7
3D73776F
BCDE20EF
3D74D59E
BCD6F03F
BD5A0E7B
BC196361
BC347EBA
BD1965D0
BBB59938
BB243A1F
3BE1BF01
BD203345
3C106DEB
BD050336
BD3D07C1
BCB4382E
BD3B4CE2
BD974250
3D2683A1
BC4B7E6E
BD5DC428
3C5884C7
3D08E308
BBD9F73F
BC84445A
3CB81984
BD05895B
BD4D64F0
3D12C94F
BBC19025
3D1458F8
3C8BFF18
3D039425
BD1600DE
3D21403D
BC55B1B5
BC46FCB0
BD1FE1C9
BCA6BFF0
BCC771AA
BCF570CA
BD2BD5B1
BD3D61EA
BD8197A6
BD5BE22D
BD45F879
BD35B294
BD3CBA2F
BA5DDCE7
3CEB2774
BCAFB506
3C3A6457
3A64A778
BCD77BE7
3B9E56CA
3BF94EC1
BBF3E691
BD1AA881
3D695DF6
BD2FB708
BD65AFA7
3C505A37
BD5A2E67
3CB88F43
3D27A703
BD5F9C76
3D255E5A
3D02EE21
3D6916BA
BD1D2D19
3D59941E
BD2D3350
3BED7EC4
BC91A13D
3BE8486E
3CC94BB5
BD237117
BD55DA02
BD087215
BD5B47A5
BD14CFB6
3D041FFD
BC31C3CC
3C4C0E30
3D4B02D3
3C096243
3CBFAEE0
3B8AD4AB
BD498990
3C392840
3C9E3C59
BD617516
BD4B616C
3D2A7F54
BD853805
BD67DDB8
BD36D502
3C27B284
3CE37077
BD4ADDC8
3D1BD302
3BCFC697
BC90C191
BD04F922
BC335588
3D59103A
BD02EB9A
BD63C880
BD1DD777
BC5A70D9
3D814B29
3CB4DC8E
3D1F7A67
3D24CB7A
BD3D7820
BC482620
BC37C25A
BD252AF8
3D074B5A
3D338D88
3D06C502
BC880E6F
BC805E27
BD69ABC8
3C284E92
3B0E55FE
BD2735A0
BD015B84
BCB3018A
BD2F1763
3D24AE01
3CAA1DAE
BCAD5675
3D3BF219
3D462BD6
3CF92BAA
3C4503C4
3D57BEF0
BD65EEE6
3D1B27E8
3D0E9A07
3CE561BD
BCFD946C
BD19871A
BCC73E0E
BCE5B7B9
BB8C7F7B
BC9EE0CB
BD2050BC
3C60AA1E
3D22F5D2
BCB0CC8C
3D56F38D
3C90B0A5
BD70C6DB
3BEDF631
3CBEB04F
BD50C2CA
BC8F4F6D
BCBCF997
3C7A22F1
BBE6D9E7
3B8E14E8
BD547494
3CC72327
BC1A733F
BCAD2E6D
3C577A57
3D2EFE64
3D4FCB4D
3D7DFA1A
BD21D901
BD57E2EA
BD2E7D8D
BCC55258
BC0BD231
BC32BF9C
3D0C15D9
BCE43974
BD4ED251
3D169DDB
3D3A37FF
BC9CAA1C
BD5F4A3D
3CABAD90
BA3CC6DB
BD41495B
3D0668E7
3D3ED740
BC063C08
3BE35624
3D27A779
BBFE77EC
3B8669A0
3AF35520
BD57F53C
BC6F6A76
3D19FB21
3D4399E9
BCCE090A
BD222512
BB4F4713
3CCD6224
3C710D87
3C670739
3D3A6BF4
3D52FA5B
BD0EE116
3CF132DF
BCE8C71F
BCA40ACD
3D2BCB74
3C15E72D
BC5A6356
BC251BBE
3D0E3DEB
BD6CAA2B
BD8222B0
BD10EF7B
3C852D77
BD48B4C5
3C4E655A
BD0EBE66
BCD74957
BC2096A6
BAB33782
3D4B9869
3B978E5D
3D378C1B
3CCEDB66
BC3C1118
BA3496BC
3C92228A
3D0C6B9B
3BAFE2F0
BD23056B
BC3C0501
BD6E6725
BCF401AD
BCA880C4
3D237CCD
BC940B58
3BCDC115
3D3AE073
BA2979DF
BD62E937
3B5A8C94
BCF8160A
3D2B569D
BBF703DA
3D4099A6
3D34C39A
3C0592B8
BD56ADD8
BCBDFAE9
BCB42017
BD2A784F
BD55370E
BBFDD07A
BD516E90
3C667393
3C3935A2
BCF9FD11
3D51A012
BD164FE7
BCABEFCA
3D1A0C95
BD3E1C97
3D50FDFD
BD1E8E26
3C546A2A
BD964897
BC2DF3BE
3D2B3CB0
3D00542E
3C195E87
3CC8422D
3BEDA583
3CF17A20
BD57FA5F
BD8119EC
3C7803B2
BBC6D30A
3C58C428
3D12B4A5
BC9981B8
3D721A17
BD42A7D7
BD776C84
BD7A2CB7
BCD528A6
3D160651
3B5DA54E
3B9FC344
BD5440C9
3D432D74
BBB9033D
3D6DB557
BD586BBC
3D19A9CD
3AE3CA5F
3D0979BA
BD72D056
BBD3AC07
BD309F22
3D2848C4
BCDBDDDE
BD29FDF6
3C924A96
3D123237
BB0FCEB8
BD2713A7
3C5C44AA
BD1DF53C
BD14165D
3CA78EB1
BC2E0E7B
BCA5FE96
3D310442
BBD792F6
3D35575C
BC5DFEB1
BCDB4DDF
3C26AF8E
BD3E20A8
3BC0A8EC
BCDFF9F5
3CAFA3E8
3D1D6D83
3D1C815D
BC1BE656
BCF63FEB
3C1A499F
3C9FC915
3D78CDB0
BD54A5E8
3CDB24E2
3D225DA1
BD5FF313
3D24EBF6
BCB0563D
3CFA9527
3B284DE5
BB903637
BC5829E6
BD587002
BD182E5D
BD64427D
3D84E57A
BD1F8D7E
3C320E12
BD1DD4EE
3CD4A8FD
3CFAC046
BD1EC35F
BCC8679F
3D9FD8BF
3B6579A0
BA650F80
BD03987C
BD1BD4DC
3C519C40
BC869762
BD139DF8
3D128748
3CF4518B
3D36E372
BBE34F3B
3D061207
3D5EA8EB
3C77DAB5
BC53F8BC
BD6BCF1F
BC44DFEB
BC9D8182
3CFE658F
BD08CA58
BB8E6A9B
BD83A693
BCE3FD17
BB79C78F
BB1BD350
BD88FB18
3D632249
BCCDB249
BCA4DAFD
3BFCA365
387E7E16
3D1A1847
BC2F69E1
BCE62A26
BD331726
3D1E25F7
BCECC9E4
BCCCB02A
3D09FA89
BB483B3C
BC9B2C51
3AD7C99F
B9C5FF67
BC9CBB21
3DB0A9BF
3D3917FA
BD3F55B7
3BF5FB29
BC8A6869
BD00BFEE
BBFA9562
BD6CE57D
3CC42136
BC3EA719
3D584402
3C529745
3CE0A681
BC83FC8B
BD2543A5
3CE0399A
3D083DBB
3C99D013
BCD0C6A4
BD555847
BC8ED6DC
BCD9AD17
3D1D2334
3D5256BB
3CED929B
BD08BEA7
3D6EB4D8
3D50A768
3C598995
3D02C8BB
BCF28786
3D3EA8C8
3D255535
3D076A90
3D730775
BD453CBE
3CF4196C
BD286086
BB453F1A
3D524375
3C3B3450
BB06F29A
BD3AFDD0
3D89063F
BD70F12B
BC8D8CB3
BC30B6C8
3D6027EE
BD21CE4E
BD316B82
BD03DC26
BCE6B29F
3C465C90
BC945C51
BC8C5570
3C850A1B
BB8E4204
BD0397CE
3AF4BA6A
BD4FB215
3D74FD85
3D2F2F76
3D6C4612
BA0DC04C
3D8C7DFF
3BF17B26
3D151DE0
BB65DEA4
39D99E2F
3D8046A3
BC8AD9F7
3D385745
3C116C88
BC1FB424
BD53402C
3D67BD4A
BD18702D
3D1640B9
BD3FD4B5
3D391EA9
3B359B89
BD88D518
3D925EE4
3B743403
BD1D9C35
BD1FCBDB
BCFA0202
BD112AE6
BD29AA57
3C6814F5
BD558B36
3D1081CF
BB9A4479
3D7A08A2
BD7C4149
3B527F62
BCD7D343
3D39D159
BC8B5A84
3D2F5E9C
BC16931A
3D295336
3CDC76A1
3BCBC15A
3D19B848
3CE441FB
BBBDD7F7
3D9A52FB
BC9DC352
3D364691
3BA1E045
BD1A0EF4
3D4CF367
BD4918BB
BB9FF1F1
3D1979AD
BB8D26A2
BD5B842C
BB829A42
3CECBA8C
3D3339C9
BCDD2386
3CC1FF3F
3D363FE4
BCA1100C
3D65B8BB
BCB5980F
3B0D5FC3
BC5F807E
3D6FAADE
BC9D84A3
BD4DBED4
BD780E71
BBA6300C
3CA80405
BCE779AB
BC4498F3
3D6FC124
3D7CF860
3D71CCDB
3D1B18B0
3BCB5685
3D0DA27C
3D19CF6F
3D8047FF
3D184EE3
BCF53226
BCAED8AC
BC879C6A
BCB93C2F
3D0DDAAD
3D6010BE
BC91BD8F
3CE26B69
3C0789F9
BCC7F1E5
BD387A00
BCC7CB4E
3D679921
3C607218
3CB99F38
BC95308F
BB7F3DEA
3B80A8E7
3D8D3007
3D55A384
BD832B94
BB84FC5D
BD1B3A10
3C5C0D9C
3C526401
3C45C06C
3BD84FF3
BD6A22E3
BCB9A180
BD05C9E2
3B6FFE74
3C1D0EAD
3B988A4A
BCE736DF
BB00A186
BD593D1A
BB0098B3
BD436C64
BC02C0BE
BD5BFBE6
BC26EAF1
BD0FFE4D
BD027202
BD8537FC
BCDD803E
3D286511
3C9113E6
BD4E4B9B
BCF2712D
BCBC7547
3D846948
BB420F6C
3C647367
BC99FC56
3C371487
BC2639A4
3D454602
BD112B16
3CF34B30
BCC21192
BD48A64D
3C0AC1A6
BCD26421
BD3127C1
BC95CE2A
3C516C8B
3C08464C
3C7A2328
BCDD6888
3D7039E3
3C955543
BBBAE9BC
BB8FCA4A
BC677B11
BC58A792
BD472D87
BD1A6A20
3D6A868D
BBC206B3
BCB789FA
3D48C454
3D5D3327
BC908D7A
BCF9DB9F
BBF78AD7
3D0FF5BE
3CFA7FCC
3D0721A5
BD3ACAC9
3D682A14
3D3E5743
BAE08CC6
3D5F3FF9
3B7CF8FB
3D2DDEA5
3C2ED2DD
3D0BDCC0
BC400AEA
BC2BFF29
BD00B63C
BB99B546
BCD48D58
3C62EBBE
BD510460
3D0E6224
BC230042
BD147A2B
BD2338AE
BC9E7559
BD002736
BD708A32
BD23B77F
BD5CB9ED
3D0DA6A3
BB761FA4
BC4AEDCB
BC5F41D7
3D655268
BD48F744
BCDC05AB
3BB0419A
BCB1D711
3D5A1864
BC45D198
BD3464C2
3A8A7B6D
3BDE5872
3B46C784
BD21A4E2
3D05CD47
3B966F9B
BD62B932
BCA23CDE
3CBD6A9F
BC939A53
3B9A9215
BD352629
3CB133B5
3D1E2D90
3CE9C095
3C054E54
3CED7AD6
3C8741AE
3D84BF93
3CA0BA4C
B9ED9B85
BC32FBFE
3C313FD8
3CFE84FA
3CDCD5BD
3D0FE214
3C9E4A6F
3CC81EAF
3C3D34F1
BD0A792E
3C709CA3
3D6F1529
3CF1F041
BC82D50D
3C33C1D5
BD100AAB
BD64A4EA
3D6DABA4
3D05EB08
3C412255
BD16341E
BD1BE118
3D2B6EB6
3C8B593B
3CB84AA0
3C83D25F
BD87EAB0
BD3A707B
BD1BE421
BD040DA3
3D345038
3C7CAEB2
3C9CB675
BD3A3321
3C405685
BC63B448
3CB2B12F
BC24EC38
3AD11B7A
BCD866B2
3D884ACB
3BC415C5
BC57E15A
3D42C8DD
BD76ACE7
3D0F3491
BBE535AA
3D811EEB
3BC1BE57
3C981933
3D185C6D
BC2E90D9
3C4C04A7
BCF80C19
BD13824D
3B304117
3D59B28A
3D6E8864
3BF00F09
BC5BDDD7
3C87271D
3B89C823
3D3DF9F0
3D2D9AF5
38F026E4
3C9D1840
3C185EF0
3D505D36
BCF90F6C
3C87B2BC
BC906438
BC076EF0
BCA2FCAF
BCA40BF1
BD08ACC9
BB8A3369
BCA9A22E
BBAD554D
3B927287
3D798685
BD0E3935
BD17A853
BD67DB5D
BC5B6558
3D2A7E8A
3C8DE3FA
BD42A307
3D6155A4
3BEAC871
BCC8CD48
BD4828AA
BCE56412
BD0E34F9
BD352C73
3D7FD47C
3B434FC0
3D67875D
BCDC72FC
BC475302
BD38BAC3
3D4D3904
3D0F745E
BD17EE94
3D0549BB
BD74DF38
3D668C2C
BCC1AE05
BCCBFA27
BCC5F05F
3C6EB85C
3D37F84A
3C43E6FA
3D57EB34
3CE6761F
BD0A7309
3D1B94C2
3CDB7D25
BC27312E
3D1997CD
3A30E154
3CC52033
3D0E0DA0
BCC5704D
BD17ACC0
BC337023
BBE7FFDC
BD003067
3D2BF5C6
3D2ED3D9
BD4A64AD
BCB301A7
BCAFBEB4
BBDA52DA
BD39CDFB
BB77DFB5
BC9C9054
BD671F8D
3D22983C
3C3278CB
3B00F8E6
BCE70D09
3CFE64A0
BD3A1A0D
BD635F45
BBBC8009
3C885F23
BC4E4B0A
BCCA9F59
BCB8EFF8
BD4BF93E
3C69B642
3CCD195C
BCAEE49E
BC8715FA
3BA59301
BC8E6F8F
3C98CF69
3BD7C507
BD09281D
3D024B4F
3D6E0A55
BCE42EED
BCBAD4E4
3CE5AA5E
BD64D01E
3C5DFCF0
BD6FB568
3D625E88
3D1B9E05
BD60E358
BCCDDC79
3CE5CB68
3D03EF2A
3CCBC353
BD335130
3D2407ED
BC7BCCD6
3C92B7F5
3CB23839
BD103EAD
BCD8ABFF
BD21FF19
3D34BBCD
3CD1C995
3CB20722
BCAA2A38
3CEE1031
BB98B31E
BD440FCD
3D4A6538
3D7A4E64
3D52ADFB
3C4A1F4E
3CDEF5DA
3D23D11C
BD6BBFEC
3D2E813B
3D25EA7E
BCDE8885
BC67A615
3D0B12E4
3D6F3ECD
3D0185F7
3C546FA9
3D383A70
BD00EEE3
3CCFB7E1
3B8767B4
3D03A7DC
3D3F627A
BB9C0381
BD432952
BC99ED2D
BC83FEC5
BD2F0D34
BD4DF72B
3D0B302E
BC454710
BCB1624C
3C643743
3C5DCBEE
BD5665EB
BCE83C30
BD021B75
BD5418FB
BD207A95
BCB50673
BD51802A
BD7A0B2A
3D2D3206
3D297A58
3CE2F66A
BD54B9F2
3D05F5B2
3D7A0354
BADDC3ED
3CCC6377
BD96E762
BD0265C4
3C098966
BD068145
3D025FEE
3CB24FBE
BD3204F2
BD8CD993
3CE0575A
BB9D2F6F
3D1543C0
BC36BC7B
BD69CE54
3CD8161A
3B24E390
BC16FD0E
3D247C8B
BD8B5575
3C188480
BC329AC9
BC8B4620
BC72EFEE
BD55942F
3CE176BF
BCF365B2
BD26FB38
3CDD1CBD
BCAFB7C2
BCAAF0EC
BD3E3B4F
BD2DB1B8
BD3889B1
3C1E6274
3CF933B9
BD3FB63B
3D3E5D62
BC9E7D69
3D251321
3D812346
3B802958
3D23A3FF
BDA8BD81
3D00306A
3C12ABE8
3CA9048D
3D894EF4
3C84204F
3D27FAFD
BD11AEE5
BC8CEF0A
BD40B0E6
BA8CC533
BCDFCCCD
3C4399B0
3D062600
3CF2551D
3C4D1857
BD614607
3C15FAE3
3CE1791D
3CD44B81
BC0B9B97
3D0E5C28
BD211F8E
BCB1464B
3D37C67C
BD6EB8F3
3BA455FA
3D3EF911
BC98AD15
3D28B78D
3CF2755E
3C9D522F
3CD367CE
BD354C5D
3D52DB33
BD835189
3CBCF463
3D26E4AE
BD8BFC0F
BCE10F93
3D62D5F7
BB4795B8
3D1CD49D
3D54258A
BC96454F
BC9CA00F
3D16F585
BC35854F
BA433381
BD2A1284
BCA09DA4
BCDCC2C2
BD872B19
3C55EFD9
BCF6CF8A
3D677A63
3D77FC57
BD9B314E
BD4477C6
BC946CF8
3D15C493
3C001A09
BC0F122A
3C564ED2
3B868A81
3BF0A193
BD2DE32B
3CD6B5BE
3D8F16CB
3D566434
BCB722CB
BC719287
BB736EFD
BC98EFB8
BD4339E6
3CF1AAE9
3D821903
3CC48E10
BC6EA6AE
3D489493
BC87FE22
BBB7FBB9
3C1233C9
BCC5A044
3C2EDA3A
3BC61E9D
BD833B60
BD05A17F
3B0D7464
BD3B9AA0
3D3C9955
BD45D7C0
BCA31AC9
3C9D91AF
3D4BE30F
BD1D0629
BC4BBE19
BCCE84B8
BB4D746B
3CA06E3C
3D8F2272
3C1914A1
BCA178F2
BAA55138
BCE02F6A
BD1E19DE
BC4B3336
3D3D5546
3CB5885B
3D4DDB9F
BCD8BA52
3CBB230F
3C1716D3
BD0467F6
3C003FA5
3D4B2D7C
BCE9505C
3B7AFA07
BD1FCFB0
3C69D6C8
BCFC3D6D
BC9ACA6B
BC9B15DD
BD7B693A
3C3475B5
3D09C9B0
BBFF3461
3D36AABD
3CD1BE52
BC8D14ED
BD33921F
3D0042DE
3CE2962A
BD2C6E2E
BD93105B
3D9AB9F4
3C60E9DB
3CDBE28F
3D6E90CB
BD2B0582
BD22C648
BD5BB844
BCC27E6E
3D1C31E7
BD84782A
BCF68A96
3D5A7140
BD3F5F0C
3A604960
BCE377B0
BB9D2045
BBD00013
BCCACA2F
BCAE0A43
BD80702B
3CCD5776
3CDC76CC
BD7A7B60
3C40AFA3
BCD4DABB
396EFC23
BD07E736
BD5B27A4
BD1F7DE6
3CA0A069
B9020E40
BD2D1D18
3D34CE51
BD320848
3D827DB4
BD304E66
BD3170E5
BC76DB2C
BD4A4400
3CBE3B2B
3D3A7FB7
3CACDB62
3CA6BEBA
BC3EA0B3
3CC4C781
3CA52E17
3ACEEAEE
3C7A8DBA
BC676563
3D9D34EB
3D3A3A5C
BB82555C
3B07F20E
BD2E4EC5
3C042A1E
3D00C853
3C0B2B46
3CB0519C
BD240001
BC07234E
BD29C06E
3CA56400
BD4F7E15
BBCF2683
BC828B42
3D3A05EC
BD25C424
3C4A1089
3D75DFBA
3D540448
BD2D518E
3B0F736C
BD86C02D
3CE2D408
BB042795
3C61D001
BC79BC1E
BC0A7721
BA1085C9
BD1CB9F7
3C8EA95B
3A3F799E
BCFCA527
BBCE5BFA
3CA90F18
BBA2F1C4
BCCF6628
3D1E396F
BB16481C
3C7CDD6F
BCAB81A3
BD2D64A5
BC39C8A6
3D00C7B9
BCBE7D7B
BC934EFE
BD22B062
BBA832FA
BC92287D
3CFCA609
3D5CEDA8
BBD188DC
3C420F76
3BE92A89
BD18F635
BC331E17
3CF3C603
3D5C79C3
3A9623F3
BD80E0AE
3D2DD8DB
3C76AD1C
BC9F02BB
BD2C95AF
3D30750F
BD605445
BD60CE6D
3604F090
BD3A80BD
3D40BE84
BD1E250C
3D0CFC22
3C02FB55
3D28E051
BC2AC6F1
BD018961
3C073A1E
3D3E8C07
3CE0DFF1
3D29ED76
3CFFFD47
3D6A53AB
3BA940F2
3C8A5C29
BD108A0B
3BEAA266
3C75537D
BCEC7371
BCB2794F
BD3B477F
BC92AA86
BD0E4F42
BD11CDAF
3D56B8C2
3CEB6455
3D137D7E
BD7256D0
BC73649B
BD84BB64
3D3C7D4E
3D4E38BF
3B91F2EE
BA85CD52
BD472A74
3CBC4284
BC9A1362
3D38ACCF
BCF69B4B
B9D30160
BCFCF7D0
3D5BC89E
3BB5D97E
3BEA1535
3BB937DB
BD0AEF96
BD4FBFC9
3C815B83
BCFD8A44
3D18D5FC
BC51B211
3D581A98
BCAAD2D0
BD1765F7
BD40B1FE
3C361576
3D4DE09A
BD6AFDFD
BB31B2E9
3D417988
3CB64688
3BD98EBB
BBCB6701
BCB3C560
3BCE8B4C
BD358B12
BBEC7F50
3D1ED086
BD384344
BD88E801
BD4E172E
BCA1A635
BC413E7D
3D37A2A8
3D199957
BD39BB96
BBC0E52C
BD5B3349
BA3E7B14
3BCE3306
3C7109B2
BD8559A5
3D00F069
BC9F2253
3D173D4E
3BC1B43A
3B80760E
BCB8169D
BD0818C3
BCE54E64
3CB9536A
3D7B83CF
BCFA211F
3C44E077
3D793058
3C2593CE
BCBAD377
BB763B94
3D95647F
3D636D9D
3C2F0D2E
BD060657
BC919F84
3C4396E2
BD04AFAF
BBBD435F
3CAF47BF
3C42CE14
BC6A02A3
3B9489D7
BD4B9E58
BCE549FB
BD17CA65
BC9434ED
BD40A39F
BD09AAED
BD3EA3EA
3C751EBA
BD1CA5D5
3D7061AC
3CDF5B42
BD68B6EA
BC204817
BCAB6A19
BD1711BE
3D15A9AC
3D5882E1
BC40C3A1
3D0A32A9
BBF84BB9
BBDC7ED4
BC007F2A
BCA77A0B
BCCD7749
3C6534A4
39ED7EFF
3B3DD587
BD2CA9AC
BBC832B5
BD268B4B
3CDABFB2
BD81A604
3CFACDF6
BC91B06F
3D6C112C
BCD2DB3E
BD052212
BD293A9C
BD53E0EC
3D270A27
BD80F09F
3D083986
BD4E1CF1
BBA22C76
BD0F9466
3B9FEE92
BA270D4A
BCB7E31C
BCE3DEEE
BD1B70DC
BD88619A
BCDB0DFD
BCB5DD89
BBB27711
3D023D73
3C08490F
BCC49E50
3CBEC2F0
BC3D6F82
BCC4BCEA
BD1C16B4
BD336B6C
BD1B65CF
BCC747EB
BBFF1AD2
3C019FBB
3CA550AA
3AE58851
3D5EA40C
3D0D11EB
BD348FE9
3D1C6A90
BD882FFA
BC95A85B
BD136250
BC97887D
BD32644E
BD40728C
B9E9A0DE
3CA3B665
BC22F1A2
BD5A5835
BD2B22E3
3D02EB10
3D279EA0
BD37CEE4
3B70CE90
3C3B783C
3D123FAA
3D0CC5C6
3CD293A4
BD60364A
3C1A38A1
BD4B85C3
BBF2389A
3CEDFB49
BD7E0BA5
BD0024F8
BB5FAEEA
BD3DB46B
BD5EF190
BC45299C
3C7A4A05
BD044C84
BD1AAD79
BD6C7028
BD2EBD12
3C1D55C9
3CF50AEA
BC47B003
BC5744D6
3D4EEAB2
3D780B20
3D0716BC
BD3D32C5
BD3AD94A
3D108693
BCCF14D4
BD70E258
BD3A24B6
3BA5BEBE
BCF92F8F
BBD39D92
BC34F876
BD3DBC02
BCF17AE3
3BAAC262
BC87187A
BCE3D982
BD03484C
BCB35280
3D295F14
3B960282
3D19396C
3C17EFD4
BC99F2AC
BBAAF27B
BD38F687
3D5034C6
BD2736AE
3D4734DA
3CA2EEE9
3D4660D8
BD75EEEC
3D16C435
BD25E13F
BD052A09
BC46C9AE
BC0AE913
BD4797B1
3A94B1B2
3D834ACF
BD0DEFA4
BCF138D3
3C97DE0C
3D39EF86
3C9CFE45
3CEF49CE
BC2B9508
39DBEBF7
BD06F79F
BD5A7CF9
BBABA6FF
3CE1837C
BD753D61
BD2F1AFD
BD100233
BD0C6DCF
BC582DD6
3B3E90C9
3D16B6A1
3BA6419C
BD04CAC7
3C2E2CF8
BC06DCF9
3D0B1BAF
BC220339
3C7B44FB
3CF48E35
BD09517D
3D15FFD0
BBC092C3
BCE8C3AD
BCA80566
BAE1126C
BD8495FD
3D483EE8
3ADDC838
BD21DB9C
BC5197AB
BCF0CB0E
BD509D6E
BC77C5CA
3D507B0E
BD4D3A32
BAD5F5D9
3C0053B6
3D208A05
BCD5B387
3CE98240
BCE01CE1
BCD2FD57
BD1865D4
3D0D6D6D
3D234713
BD47677B
3D07AC0E
3D0F8445
3CA77C94
3BB29E6D
3D90312D
3D0483A1
BC52ABED
BD6267C2
3D3E5ACE
BBE16681
3C2DDA1A
3C373E2D
3D21282F
3B9F5373
BD8CBFB3
3D342972
BD4A7496
BD199FED
3D8522A1
BD7AEA6C
BC3E2419
BD037F66
BD5F0A5E
3C305BFC
BD37C80B
3BE0D960
BCA5FFC5
BD5BB5A6
3D43285A
BCBD7010
BD5074C2
BCFF7774
3BFB4943
3CA5D5ED
3B1C779A
3CC9FB1C
3D169611
BD4C7E51
3C611531
3C9F0037
BCAB7E2F
3B965D83
BCB59DB0
BD02B24B
BBCA7F76
BD2E468F
BD69F476
3D1538D8
BCB932FF
3D43BBA9
3D617F06
BD308EAC
BCAE3265
BD32D4D8
3CB4EF37
3BA2A888
BD6DB4D9
BD0BC6CA
3B56FED2
3C93449C
3D7CDFC7
3CEE387A
BCCAFB36
3C4AC3D3
3A81E724
3BB0AA49
BC3844D4
BD3709C5
BC8ECBB8
BCDEDDEA
BB464EC4
3C70EB01
BD47CCFF
3B866BCD
BD13C232
3D00641E
3D78917A
BD339666
BD064E1B
3CA1D2CA
BC77626D
3CB58112
3CB6F64D
3D05D96E
3CFD170A
3CCC6F9F
3D140B77
3D77E02A
3C9AE7DD
BC8E29BD
3CB8C727
3C215E90
3D3F7059
BC9E0A36
3CB4C0CA
3C9C2E39
BD60A5F6
BBD29C30
BC55766A
BD672EE4
3D005BF1
BB8EB05A
BD06D2C6
BC93C4A4
3C990A18
3BA71DB7
BD7782AB
3B837199
BC95EE34
3CB1343E
BD5C8C43
3D0526E6
3D0F7EED
3CE4B5CE
BD06F8D1
3D23E9B5
BC2AB6EE
BC618D21
BC9921A2
BC411526
BD44EF9C
BD4D233C
3D0D6955
3A64917B
3D387DDA
BCA77CE1
BA9D7DD3
BCBADB3E
3D2EBDC8
BD16FE66
BD34F7DC
3D20B780
BAE18390
BD0AB852
3D070A20
3CF29C7F
BD6EAF73
BD03B045
BBA3EB1D
3CAF9AE0
3CBE90E7
BCC4B925
3D71D077
BD51B7D4
3D224B2D
BBF1E6E0
BD02FB92
BD2C22DB
3CCB453E
BD4D4D76
3C8DE9DA
BC23718C
BD17490E
BD5044F7
3C01B3DF
BCA9AF08
BD53F23D
BC830863
BC832CA1
BC8F0CE1
BC8DFEC1
3BE9DB1C
BC947463
3D03AC87
3C50BB61
BC908653
3C99CA8B
3C3DD25B
3C4825FD
BD8574AB
3C92DB8C
BCE2EF04
3D538798
BD445A8D
3D3DF578
3C9EAC91
3A0C4EC9
BD036175
BC8A088E
BD60C529
BD1DA239
BC95F03E
BCA78C78
3CEB69DB
3D077629
3D30969C
3CC01EEE
BD099B0F
BCB02ADD
BCEF87B3
BB93349F
BD52DF8F
3D0900AF
3CD49112
3C280601
BC9DD74B
3C23FBE9
BC88CE84
BCB4609C
BC247719
BCEC41CD
BC8EF670
3BCEAE8E
3C2A5F3A
3CDB7546
3A7D3C8E
BBCC2B03
3BD41B0B
BC239A64
BD69BA7A
BCDD0668
3C87ECEA
BC5AF2C5
BD9A82B0
3C445440
BC6B1DF1
3D439C23
3CC76619
BD8A355B
3C671D73
BD261334
3D25FF29
BB71AE07
BCA163E6
BD126F88
3D006D7D
BC17B624
3D49A455
BD4F9A7F
3CC1D5B0
3C568E22
BD03C1DB
BD836AF5
BBFE6EB9
BD673422
BCF13F0D
BD3DE2FA
BC882C9F
3A0AB2F0
BBB931F3
BCEB36CD
BCF7869D
3C7E4F8E
BCBB8979
BA37E122
BD53585A
3C895367
BAA766DB
3D103CEF
3CC70F14
BCEC3DAB
3C7567BE
3C38672B
BD58A336
BD03E324
3D1BDB6D
BBA3096A
3B0B9DAA
3CD54669
BD03CF88
BD8817B3
3C110155
3D241393
3CE6A601
BD3831A6
3D2CB1A8
3D18DFFD
3C94E529
BD4FD369
BD4B4005
3D1CE167
3CA14A52
3CFE3EAF
BCE7A987
BD68C0B9
BD70A166
BC35F69C
BC71081A
3D0F0936
B9BCE695
3C80833A
3CBAB49C
3CB2A8B7
BD3AF14D
BD369684
3CC8AE45
BAAE3B38
BD731E8F
3D345E27
3BA48F48
3D0A4C29
BD340891
3C5CAD37
3D4347EA
3C93B6CF
BCC4BECA
3D283D1F
BB8DF2E3
3C8772B3
3D418FC6
BCC6A6F2
BD44E3AB
3D0088C4
3B11FB95
BD2B18D2
BD182D7F
BD3BF5BD
3D8D8498
3D6F5D1A
3C863E93
3D5EB749
3D366B74
3B93DA2B
BC61E8C3
3D2D09C9
3C7CEECD
3D6B13AC
BC1BC014
3CBED73C
3B6AD375
BD428FDD
3CE31A3F
3CF1A071
3B299994
BD06ED5F
3D730C71
3CCF40D3
BD088038
BD201287
3D1D5892
BCE01305
3CD14E9D
3D11F006
BC5302C6
BD358F67
BD1CD4E0
3CF29CCD
BC78B9F2
BD16FF92
BD22EBC0
3D63362F
BA94F351
BD848789
3C0D5B91
3C1F80C4
3D0362DE
3D227D6C
3C313881
3B84A68B
3CB2967C
3D3FD9A3
BD3E1B93
3D1D8BD7
3D762F46
3C53EC40
3C4BB16D
BD4750D4
3C02DF28
3D2BB620
3B5E0017
BACD1673
3C9DA51E
3C58866C
BD334F1A
3A85D3A3
3CF58E71
3CE91402
BD2BB6C9
3B9C55E6
3BAF2127
3D7CE65C
3C88819A
BD151192
BA7F0122
BB1659FA
3CD9E5F2
3C0627DD
BD7B558A
BC9BC50E
3D9A0B99
3D01664A
3C4EB219
BD0FEC7F
BBFBB692
3D3BB5AC
3CF5803C
BD528F5E
3D195EE8
3D437FF2
BD0F4299
3CBC41F7
BCE3BF30
3C511D14
3D81EC44
3D2B5804
3D118E2D
3C390260
3C4BF2AC
3D44FB4F
BD3E1FE3
BC1F4031
3C9A892A
BCBDCB1C
3C62F50D
BD06ACB5
BD67DE0D
3C84E616
3D3F35A7
3D284E5D
BCDA68D2
3CBB1A1B
3C747177
BCB4DD37
3CCE1AED
BD12F809
BB4C5B98
3D1FD644
3D407EC3
BC666D51
BC8A180D
3CE4EDDE
3BC3483D
3D37A3B9
3CC11F5E
BD658E61
BC6CCBCC
3C9E8517
3D49A058
3BB16E82
BCA4AACD
BCABBF06
BCBBF757
3CB0CE65
BD6BA7BC
BD863AD2
3B7CCD07
3CAF3A01
3C10E3F8
BC093806
3D6C1F10
3D80A4FE
BD7D52C0
BD2CD03F
BD1E20E8
BD26C96D
3D0F50DA
3D2DB6BA
BD0C7C0C
BD1590AD
BD64A03C
3C8FD78D
BC7D8D2F
3CA19E75
3D44E87A
BD4F9D71
3CEDFD44
3C34279B
BB8C9CA5
3D831FEE
BC009FB2
BC7BB6D5
BD4BA6BB
BD2D17EF
BC2597A9
BD11FA33
BD6AC4CE
BD65CCCB
BD835135
3CB5A630
3CC987F9
3D5232B1
BBF06409
BD3499ED
3CD36191
3D3E0DD5
BD0AB574
3C213DC0
BC8E5C3E
BCF67758
3C6EB8CC
3CCF6D40
BC62352E
BCDE4AAD
BD06F2BC
BD1466D1
3D150311
3C3A3D37
3D3F0055
BCFD7710
3D14DC89
BCC7155C
BCD04AF7
BD922BF2
BD23FDB9
BC449779
3D03C79E
BD605AA3
3D142C61
BCA0AD9D
3D209641
3B656E00
3C468CA8
3D3DBD0B
BD52D5BA
3D213A5B
3CB0048B
3CC4EF63
3A28F578
3CB4736A
3AC93B2C
3B99FC38
BC8238B0
BCE73989
BD29E19B
3C6991CC
BB92B0AF
BD0A714A
BD1AA7D5
BC8B193F
BCCC47B1
BD063F18
BC021C9F
BD0D7953
BC231B2B
BCE43A48
3B9557DB
BBFC787B
BD52E2B0
BD064A83
BD271A76
3C6A3B4A
BC821D4C
BD58EA89
3C4BBF83
3D0EC351
3C07D9DD
BC83A350
3D4686BB
3CB6BD85
3D5D5565
3C85C17C
3BB31950
3D8D06B4
BD12A718
BD1F70B3
3C69761F
BD37F252
3CF949F4
3CD2C241
3D178FF9
3D698D1B
3BD386FC
BD2A0B96
BD844AF9
BCA21B51
3CA5FCAC
3D395CA2
3D9331F2
3A532126
BD30BE53
3CC50B51
3C75294D
3D0E65B1
3D7C5088
BD4074CE
BD382310
3D71CB33
BD1691FE
BBD66800
3D15BFE4
BD33CA17
3CD644EE
BD04D018
BD1412C1
BB802411
BCE492F4
3C934D92
BD0A6727
BD624CF0
BCD56E16
3C85265C
BC5AF75C
3D2619E2
BC6FA5CF
3D24AD37
3D1C60E2
3BFBA629
BD731FFF
BD083427
3D34528A
3C2F3BAA
39DA71C9
3D31B68A
BD9358F8
3D2B0653
3D59330A
3C1954FF
BD800B9F
BBB89582
BC916532
BD41D9E0
BD752E7F
BC409E87
3D6B0FF5
3CDDF320
BD3B8A66
BC3A3624
BD26DD41
BD2F49A9
3C811FFC
3D19306D
BD1B4A9F
BD8B9677
BD5CE5CF
BD059851
3BEF000D
BC3C4D7C
BD3555C6
3CF0CA79
3D658D21
BD3911EF
BD19F5F4
BBB51152
3D363FC2
3CA44F95
BD8C591A
3D5B1129
3BA675D9
3CDE0617
BD313375
3D8892FF
3D05A3D0
BCE36ECC
BCC4CED6
3D582769
3A162CDD
BD08C99B
BCD8515F
3C6438E7
3D17CE44
BD2A78EE
3C2E43A1
BCD0663C
3CB32D39
BD8EBD31
3BB5D415
3CA2FC3D
BDB51776
3CD93960
BCA57C57
BCE735D8
3C821E5C
BD57B2A2
3C1940F9
BCD41B11
3CFCE2E5
BB87D79F
3D46ADC1
BC29D425
3D865F33
3D5AD25B
BB96EE00
3CDF2D1A
BD551315
BCF477D7
3C20C544
BD19F36C
BD000530
BD6AB2F1
BD756336
BC52B5C2
BCDEA8B5
3D60E900
BD24924E
BC3F69EE
3D75B610
BC6BB37F
3D32AFE4
3D25C8AA
3D5F3A7F
3CE10909
3ADD1E9F
BC3054B8
3CE44EB3
3C991ACE
BC63C2CD
3B7A5B42
3CB92D98
BCEF6207
BC9D5D5A
3A97C62B
BCA9E45D
3D138962
BD308540
3C11FC56
3D29BFAF
BD81CC80
BC863AF8
BC55DFF5
BCE61A4B
BA0C2C7C
3D43FE56
3D007BAA
BC31AE8A
3CF0E8BE
BCE2E2BF
BD47E694
BD453CA7
3CFBB21C
BC5D13D7
BD5CE6BC
3C87C013
BD2876FE
BC0357CF
BCEA51FC
3D55A851
3CFA2409
3D51DFC7
BBED3CBF
BB840430
BD47526A
3D65922A
BD157116
3C3A0FA0
3D4B219C
BD5A773C
BD4748C0
3D22DF4B
BCC6486F
3B2A6411
3D5E12FA
BD0209D9
3BB6060A
3D75ABAA
BD43C79C
BC153A72
BD0B645C
BD340E09
BB1B87A4
BD88126F
3D581AC7
3CA8E555
BD8D906B
3C4DBF4C
BD182160
B99EE03D
3CFF15C5
3B7FEC17
3CC2A51D
3D2AF88E
BC53A28F
BC755537
BC3B3540
3CC9963B
3D5B1F1E
BD1267A6
39E71AA4
BCD5DFCC
BCD6E321
BB9E015B
3D18E24F
3D0DF786
3D80C57E
3D3FC50B
3D23B23D
3D816111
3D749DBA
3D80692C
BCAD2C23
BD745A70
BC74198D
BD9493B9
BD142749
3C23611B
BC877C93
3B161C42
BC3CD5AA
3CA29B0B
BCD7D580
BD837E40
3CED313B
BD5BD4A4
BD320BE7
3CADB0B6
3D2AF922
BCF396E0
3BA8DB66
BD0575DA
3D500D48
BD17F8D6
BD327AF0
3D0EDE9A
3C8445C0
BD0B5BDC
BC88EAF9
BCBB0976
3D33E3C6
3CA716A8
BCE4296A
BCE14617
BD63CF07
BB9D063A
3B0ECAA4
3D1A4C0E
3D00677A
BCFADDD2
3B3B8775
3CFFBCE3
3CAF737F
BD45E52E
BD11F197
3C1E17FA
BCE4E237
3CE07D80
BCFDD73A
BC53199C
BD1A959A
BD1962B9
3D6B9233
BD63633D
BD9D42E6
3D6A33AB
BD5A100F
3D8C68D3
BBCEABA2
3CC097FE
BC68050B
3D30F8C4
BD51EDE8
B92A8384
BC6A5949
3AD39175
3CB7540D
BB878B63
BCDB2BD6
3CEF6827
BD4EFC8D
BD791EF8
3CE6465F
BD457F66
BCC9B1E1
3CF12380
3CA0F285
BD547150
BD29BC91
BD7BA847
3CB4EDC8
3D338CBB
BBC3F16D
3D482BCF
BD70342A
BBA1F690
3CB1390A
BD588A4D
BB767AA7
3B3A5C08
BD79F88F
BBA960EF
39D231E5
BCFC2031
BD05F0E6
3BE7909E
BC3E50B8
3CE9257F
3D2020C1
BD8C63C1
3D5ED227
3C60A6E1
BD317CBF
3D07F5E8
BD52BB63
3D53E661
BD5B7DC8
B8706311
3BE5F05D
3D26A648
BB47632E
3BF8D08D
3D16789B
BD09818F
BBD3171F
3A8D67DE
BC4A42FE
BCA84CCB
BBB4A3EC
BD1757D6
3CFAEB59
BC2F2782
BD83A6C2
3C0CBA99
394CE9A9
BCBFF14C
BCA4DB72
3D4CB7B9
BD55CF23
BD06E916
3C8E8240
BD3795B0
BD505E76
3C81813D
3D6B3992
3D10FE81
BD2460A3
BC7206C0
3CC2ED58
BB60AFCD
BD1F63B1
3D213493
3C41B457
3CCCDF64
3C55BDE9
BA28E30B
BD5EC91B
BD3A8DD0
BD4E9496
3D59B79D
3D11E73E
BD23C8E3
3BAEC030
BBFB0203
BD777CDC
3D0C89A4
BD2FE51E
BC2DDFE1
BC61066E
BCFE8DAB
3C1DCBF8
3CC8CAA7
BD172A6F
3D180B66
3D466D5F
3CECA5EF
3CFCC7E4
3D0ED164
3B2BFDB5
BD02891E
BD939C0F
3CB8CC9E
BCC1A2E3
3CF78376
3D662173
3D239433
BC4FA265
BD2DEDFA
3CF2273C
3C7273B3
3D2BF4D8
BD1DED5F
BD776828
BCAD171A
BC9D06FF
BC951705
BCD2A4BE
3CA52FAA
BD0ACDD3
BD7D8DDA
BC1BC060
3CBCD4E2
BCC58ED7
3D07D3DD
3D5E405C
3C7AC45E
BD44F4C5
BD658C9E
BC7A24FE
BCCE22F4
BBD6972C
3D0E5A4C
BB170A60
BC74327D
BBB2E863
3C173E6B
BD62251C
BD6425A3
BBEE7F8F
BD223909
3CBF341E
3CABE907
3D3DDA42
BCC47A8D
3CB6AB18
BD33D190
BD2CF9BE
BD555011
3D634B3E
BD23A6FB
BD79C52F
BD062AF0
BD3B5FA3
BD63A75B
BD097C63
3D0663AB
3CEEBDB7
BD81489B
BD7D7753
BCC4967F
BB0EAF77
3B6C33EB
BD438689
3D0EB2F4
BD9017C5
3D020F06
3D690D71
3C0A4AAD
BC14B3BB
3D34A2C1
BC30CB8D
BCD8F1C9
BD3C8256
3D364510
3C8D953A
BD07CBD3
3D38A53D
BB48256D
3D0518CC
3D489811
3CF9C028
BCECFEF3
BC64035C
BC8391A0
3D163DD6
3C18A01D
BC3C03F1
BCB749AF
BD158A31
BC8AD6B1
3C13A6E0
3C689FAA
BD0FEF69
3C823EF3
3CC7A702
BCF57A31
B9913F8B
BD88D99B
BD65D4D9
3D28B6B5
3D157727
3D1C218F
BD1C55A1
3CBBE66E
3D1B812E
3AC8E77E
3D736364
3C215F34
3BABA999
3BEBF9C9
BD260C5C
BB82D63C
3CF75AE3
BD3EF500
BB71DDE6
BCF72181
BCEFC440
3C9F7DA4
BC5571DF
BD688F78
BD1F8B99
3D090E8B
BCEECA50
BCAF4152
BD14849C
BC6AF202
3D08A4EB
BCFA397E
BB87F20F
3D5F06B4
BACE15C1
3C37F6E9
BD784856
BD3D1521
3D057E24
BD0E2D9D
3D889C41
3C9230F6
3CAA6620
BD1092D8
BD65D549
BD050E79
3C975F26
BD373B85
BCEF6677
BCA764D9
3CB4086E
BD3BC7AA
BD21F7F7
3CF06E7E
3D22D120
3D223CC1
BBB67E14
3D09258A
3CBF6E5A
BC0FD69C
3D3BFCC7
3D60E5CD
BD4768FE
BC8DFEA3
3D0B6F3C
BC9DC83B
BA71C5D3
3CE8B133
BCFA25AB
3D4A8333
3D0A67A5
3D25FE34
3CA3D58C
BC187B2F
3D125EF9
3CADB4A4
3D25AEC3
3D4166F3
BD75624E
3ABEF77F
3C77A4BF
BD0C8874
3D39F67A
3D33752A
3D316A9C
3D06DE83
3C9C486B
BBA7FFEE
BCD14615
3D065F7D
BD09BBD5
3D806053
3C2972DB
BD2A1876
3BF5C4A7
BD50638B
3D901457
3D0E1D81
3BD36DE1
BD4B4013
3D06F60B
3C2AF696
BD80DE5E
3D48E45B
3B3B591F
BD20188A
3BBB9B4C
3CA29A94
3BACD331
3C2F86F8
3CF2EBF9
BC94098E
3CBEE7D8
BCA5DC02
3C82FC6F
BD240036
BD0B0ECC
3D213CAC
3CB06C7D
BC629346
3C730E8D
BCA21545
3D10C656
3D84CB90
3C9E9F47
BD80112D
BC3D8A29
3D5C9792
BD6C39ED
3D21BF4D
3C5683AD
BD5B0122
BB83FFB0
3D537F48
3C2149E6
3D1C562A
BC0C47C1
BC223C91
3C1FF865
BCF31D15
BD492836
BC1AB584
3D639713
BBFD5D50
BD232686
BCD12504
3D728CFC
BCDBCD3A
BCC2197F
3D20124B
BCED96D7
B971D3D9
3D298062
3C3A20AA
3C2DDB09
BD327D74
3C931E0D
BCA7ED74
3D5B76CE
3D1B1F4F
BCF0BE98
BC5C8050
3D99CDCC
BCCD0399
3C85E8D6
3CF58A86
BCA1CFFB
3D5130A7
BD62120C
3D55A751
3CB5F9CF
3D1CA5DF
3CA334C0
BD8979E3
3D8964B6
3D176611
39CC6AB6
BD02D88D
BD468686
BD783D4F
BCDCCAD0
BD9F8E9F
BD544D9C
3D354A18
BCE616DD
3D2C61B0
3D160C25
3CB722AE
BC920398
3D709197
3CCF4068
BD0FCD1C
3CA3BD48
BD1F786B
3D63C5C6
3CB73512
3C344444
BD5FC98B
BD65382F
BD81E590
3ABBC19B
BCBE3333
3D5563F3
BCD9AA91
BD2F530F
3BA6C46E
3C385B5D
3D0A0AF9
BC2C4D71
3D88EB1F
3BF9E275
3D3ED1DF
3D8ACA48
3C31902E
BD86F85A
3D7F5F0C
3CB8E660
3B93B651
3BCCED4A
BCB3B74B
3A94ADBD
3C4E327D
BC981C0B
3D233E54
3D22991C
3BA86108
3CC5A349
BCD60F95
3D06C731
BC924985
BCDB80E6
3C952937
BC50ABE4
BD85BD27
3C4B328C
3CA0E1AC
3D015619
BD7DACD3
BD09406E
BC9C2DD8
BCFF8572
BC7A975A
3D13BDBF
BBB6280E
BC9C4D50
3C2847B2
3C948FAE
3D442F94
3D714DC8
3C986D3A
BBE2F97E
BD60EDB6
3C4E80B4
BD58F42A
BD277E0A
3D24CC8D
BC2990B8
BD8F8A8C
3D2B2F3E
BD20F1EF
BD5BDDB9
BCFD76B1
3CA53396
BCB77ACB
BD422025
3D5075F3
BC555C5D
BCE7470B
BCB1C4A1
3CD4B85F
3C80C0C1
BBDC53CE
BD0F53CE
BC8F8212
3CAEE225
BBA5F1D4
3D37E60F
3CE49FC5
3D342ACB
3ADCF044
3C731452
BCCC1B4E
3D48558D
BD393331
3D28DD2D
3D8311F0
BC515985
BD1F6F87
3BABE34A
3BB1A4E9
3D445F1F
3CBC2435
3D2E27B6
3D1711C6
BD31AF65
BD508F03
BD33DA1F
BCD91625
3D461D85
BD67AEE0
BD86D951
3D0B98EB
3D024215
3D1935E1
3D03BEF0
BD5207C1
BD23455D
BD802A7B
3D724E74
3D5B1796
3CB1C8B6
BD3435CE
BBF2EB34
3CC533D6
BC3BDACF
3CFA0EEB
3CD7BC0A
BD66B886
3D360C70
3CC9BDBA
3D4CF1C0
3D2FCEA3
3CC4105E
3CD58C39
3C6C3279
BCAC9F3C
3C7E5472
BC400A4E
3D194FC1
BD03D953
3D0D3D07
3B37F26F
BC559F8E
3C250223
3CCB230F
BD0CCB57
BD5B7FE3
3CA7707C
BA886DB0
BA5B9B17
3D3F6F66
BD529B12
BD20FA14
BD704799
3D7E69C4
BD1D101C
BD280661
3D63F141
BD137FA2
3C816DFE
3D207990
3D46CBD1
3BA63753
BD264C84
BD0006F2
3D2B68CE
BD828322
3D3A1C45
3BF30529
3CB4E9C1
3D6F1E53
BD330044
BC7B926E
3D18F269
BD19FEE1
3D5C2F1C
3D82F6A3
3D3266D0
3D2721DC
3D14231E
BBBB1B12
3B46DAE4
BD216C82
BC90E645
3D6589E0
BD47E141
3D422305
BCA55E51
3B496C9F
3D4C3B3D
BC10D246
BCBCCE64
3D498128
BD0D378B
3D16EBE7
BCD7553C
3BA56FCD
3D165053
BCB5F3BE
3BEC06C8
3CB7977C
BBFDFACF
BD08E9D5
BD18F1F3
BCD845F3
3D5F7530
BC69351E
BCFF2E7C
3C9F4DD7
BD165558
BD706196
BD0234E1
BC17989B
BD10EC3D
3B9A6436
BD148013
BD7D9245
BA2B7EC4
BD65EAC9
3CC08B72
BC771573
3C82E9DA
BD1EEDB9
3CF4D7E0
BD0052E1
BD04CCCA
BB67E030
BCDE77C2
3CD30BBC
3D2269F6
3CA4432F
BC8D625D
BCDF29EA
3C320188
3C20021D
BB0D348D
3B8A0D08
3CF8FAE9
3D5BB443
BCE1B812
BD2E0D50
3CDF2026
3D3AA121
3CE32B90
BC823E0A
3D5A4E8E
BD0A13EF
3D298252
3C86906B
BD3B1D19
BA660208
BD052EF4
3B5779DB
3CAFEA33
BCCF42D2
3D357331
3C527ECA
3BF3DB88
BCDAE47D
3C18433C
3D443643
BCC6B22B
3D10B589
BC0CD860
3D3C29F9
3D2F33FF
BD4E149C
BCFB3092
3C7746D5
3CD17DB5
BC39FA34
3D5849B6
BD2BFEBB
BD4B6012
3D26FDC9
BB0B267F
3CFC5C05
3D12F6DE
BC1E0608
3D72AF05
BC96D72D
BB97F1B0
3D147043
3D716616
BD2C565B
BC0D267B
3D77419D
BC0A0839
3D4A561B
3CC7B77F
3D0A3DAB
3BBFC13E
3CD3849F
BC014F03
3D2EFE15
3D0A4D43
BD10134E
BC60816F
BCB41742
BD229C1E
BC9049BE
BC8972CD
BD341AA6
BD25C34F
3C3B7261
BD5DFCC9
BC9FD590
BD10679F
BD480C91
BC5587F0
3BC62B21
3D16E91C
BD669648
BCC859DB
BD4FF213
3D15D44F
BD31D8BF
3CB106E7
3D84AF45
3D1549FD
3C840669
3C7CBA06
BD00FECA
BCFA5851
3CF07E74
BCCE3CBF
3CEF1222
BC3BA35D
BC006684
3D562E24
BD00D6AA
BA5193BF
3C8F1767
BC86E07C
3C641D11
3D7AAB2E
3C593797
BCC6E184
3D72B19E
BC36D2E1
BD0F1403
3C6C6425
BC2BD9CF
3D2C1C90
3D1E5DBD
BC16D8BE
3D08C711
3BA54698
BCA3B6B0
BD7287A3
BD42F99C
BD0F7264
3CDF17C2
3D6ABACD
BC76ABCC
3CBA4C91
3D72BBE6
BD3281D4
BB9E2F48
BC6488D7
BBAB71C3
3D0DE10B
3D1812BF
3C91848C
BD3D2AE9
BD15B862
3BCFCAB3
3D1B2867
3D227EC9
3D70E8CD
BCA56701
BD3BC664
BD1A989F
BC96894E
3CD1FC7B
BCC0166D
3CB999CA
BCA13B8B
BAC11B03
3D5616E5
BBE28ECD
3D424832
3B83FDBC
BB455D46
3CB2C5C9
BC9D7355
BCC9B28D
39570326
BD1917C4
BD70DF34
BCEBC281
3C9498F5
BD31321B
BCCCF9B4
BD1F69B1
3C9268E5
BBD9C539
BCC9612F
3D60BF54
3D23DE83
3C2AAC19
BD18A229
BD57CB10
3CF601E3
3C765075
3D07705B
3D174167
BD6307C2
BD35BF27
BD363D7C
3C660B47
BCFD85F5
BD82D3C8
3B86EA79
3D516D48
BCEE9B1A
3D1CF54F
BC97F6A4
3CD1D123
B9E1EA39
3D093A8C
BC6FF438
BC203B1D
BD14C07E
BD2253EB
BCA1123A
3CA37755
3B8AC29B
BD3979B6
BD2948C3
3CB9E7AA
BC7CDEAE
3D931ABA
3D1935F9
3BF94210
BD1F6378
3D25466F
BD5E5AE8
BD53C4CB
BD1B1CD9
BD018BB2
BC355EE2
3D754AF4
BC9762E8
3CB512DC
BD7E5461
3D705825
3CB40B3C
BD6A366F
3CD489D1
3D397B12
BD5779EA
3D1266BA
BD28F51F
3CF012FB
3B9C170D
3D1C3359
3C44899B
B9ED9826
3CBD123A
BCF490DA
3CB46D12
3D660F82
3C142204
BD1F1919
BAF33C74
BD6C6919
3BDCE91F
BD39EFE1
3C508208
BC1A472F
3D48B298
BD03F454
3C4B4A63
BB56D731
BD2CD95B
3D1BE285
3CA22CF5
3D4897B1
BC9C4A1A
3D69955C
3D226D88
BD68E30A
3AC42CB9
3C4EA733
3CD95367
3C662BDE
3D3B7598
BD095BAB
3D14CD4C
3B3CEB6F
BD85E5C1
BD258925
BCADCE98
3CCD614F
BC5594A1
BD089F0B
3C2D05EC
3D1D8A20
BC1EE013
BCE71701
3D4EE22A
3CE014F8
BD7B4432
BB0A5B98
BC03589F
3D2AE364
BBEFE50E
BD30CE92
BD4D2F2A
BCD65F89
3D3F4FF8
3D32F532
BC485FB8
3D46DB03
BCAED3AF
3CFA8B47
3D27552F
BC50DA19
3D475229
3D3A8F38
3B371352
BCCDF944
BC0FEDF2
BC53AB92
BB1578F3
BD4E517D
3C7BE50C
BCA4E072
3D179F0B
BD51B4CE
BD2CE61A
BC446F9A
BCBE3AE9
BCC661E8
3CEA6851
3C1C218D
BD56720C
BD4820A2
3CFD5D6A
3D547120
3D1A4301
3CB7405A
3D1A6D8E
BD83D16A
BC2A80D7
BD2C13E4
BC9566F0
3D2DB7D9
3D9A419B
BD60FF51
BCCC1B37
3D7B877D
BD4685C2
3D782FBF
3D2D2CCA
BC975FA9
3D1E3A01
BD0C867C
3BCFFE06
BCD8B73C
3B23495B
BC9331A3
BD93BC46
3BA03FE6
BD7F6B4B
BD3C0CBF
BCAE71F9
BCB288DD
BC5AF62C
