BCA23617
BC24153A
3C07789D
3C3EEC7C
BC5A671D
BC2D7160
BB80CABA
3C0BA128
3B7FD882
BAB6B642
3BC601FB
BBE71BB9
BB07F52F
3BDF8F11
BC415616
BBFC0E06
3AC75A80
3C58B608
3C2D13FE
3BAC24F9
BA68C143
BC1B5A39
3C1A7717
3B860050
3BD906A1
BB84FCF9
3BEC9926
BC902092
BBDB3E78
BC2B7C6C
BBD323B6
3B3FAF21
BC0086F7
3C78559B
BBE4EC7A
BC8E73EC
BC0A1A38
BBC5628D
BBBC05F2
3C77F573
38219D20
3A027FD4
3A018196
B97E3119
BC48CABD
BC01119E
3B3709E9
BBF78C2C
B8A38F3A
3CC017C2
3B9C0DFA
BB8C88EC
3AE7F688
3AD319F5
BAE7525A
3B157704
BB87F137
BB94C88A
BC47BE1B
BBB83639
BAF3B33A
BC881931
BB921718
BBD10732
BB0DF184
BBB5E63A
BB858404
3C02E678
B9550194
BB584A36
BB9E7E8E
3C07E975
BB08A2F2
BC0064B8
BC9060F0
B96A0C19
BBA72736
BBC274E6
BC05C81F
BB9BC0F0
BB803CFF
3B9ACB7C
3BBDB79C
BC2F8E0E
BB479CBB
BB4A1C17
BA142078
BBB589B4
3C83FCE8
BA9C0317
3BAFD8BC
3BE1C930
BA8479B8
BB9202C5
BC640325
3B97790A
BBC9B3EA
BC1CB518
BC065B2A
BC222306
3B0DE75A
BBBA2399
392CFAF8
3B2F4051
BBC711AB
3AF7BCF2
BC1129D6
3C830AA0
BBBCEEE1
3A1C58DB
BBF6E87D
BBC7007E
B9D487C9
3C08EFF0
3BA65724
BBA30E44
3C3391C9
BB8069FB
BC120A48
BB872EF4
BA7C2138
3C44724F
BB8C5EE2
BAD273F4
BC370DEB
BAB66D8E
3B581672
3BFA6CE7
